<pad>	0
<unk>	0
<s>	0
</s>	0
<sos>	0
<eos>	0
▁t	-0
ng	-1
▁c	-2
▁đ	-3
▁n	-4
▁v	-5
▁th	-6
▁l	-7
▁m	-8
▁ch	-9
▁,	-10
▁b	-11
▁nh	-12
▁h	-13
▁.	-14
▁k	-15
nh	-16
▁s	-17
▁tr	-18
▁kh	-19
▁ng	-20
▁g	-21
▁là	-22
ôi	-23
▁và	-24
▁r	-25
ác	-26
ông	-27
ột	-28
▁p	-29
▁d	-30
▁ph	-31
▁tôi	-32
qu	-33
▁một	-34
▁có	-35
úng	-36
▁gi	-37
ên	-38
iệ	-39
ững	-40
ời	-41
ới	-42
▁những	-43
▁chúng	-44
▁củ	-45
▁của	-46
iế	-47
ất	-48
ạn	-49
▁T	-50
▁ta	-51
▁các	-52
▁nà	-53
▁qu	-54
iề	-55
▁không	-56
ượ	-57
▁nó	-58
ong	-59
▁V	-60
ười	-61
▁đó	-62
▁x	-63
▁C	-64
iều	-65
▁người	-66
▁bạn	-67
ại	-68
▁ngh	-69
▁N	-70
▁trong	-71
▁thể	-72
ược	-73
uy	-74
▁này	-75
▁đã	-76
▁được	-77
▁như	-78
▁&	-79
ây	-80
▁họ	-81
ình	-82
ot	-83
▁với	-84
ấy	-85
quot	-86
▁cho	-87
an	-88
▁Và	-89
ay	-90
▁ra	-91
▁sự	-92
ần	-93
▁mà	-94
ải	-95
▁làm	-96
ang	-97
▁ở	-98
iên	-99
ằng	-100
▁để	-101
ực	-102
▁về	-103
▁Đ	-104
▁sẽ	-105
▁cả	-106
ái	-107
uố	-108
ân	-109
iể	-110
ơn	-111
ật	-112
iết	-113
▁điều	-114
▁thế	-115
ầu	-116
▁ho	-117
on	-118
ướ	-119
ch	-120
ến	-121
▁Ch	-122
▁từ	-123
▁khi	-124
ành	-125
ống	-126
▁B	-127
anh	-128
▁Tôi	-129
inh	-130
▁nói	-131
ao	-132
ai	-133
ết	-134
ức	-135
iện	-136
▁1	-137
▁nă	-138
▁đến	-139
ính	-140
▁?	-141
▁phải	-142
▁M	-143
iệc	-144
ước	-145
ườ	-146
▁rằng	-147
▁Nh	-148
▁vào	-149
▁gì	-150
▁đang	-151
àn	-152
ường	-153
▁việc	-154
▁H	-155
au	-156
▁lại	-157
ản	-158
ận	-159
▁thấy	-160
▁nghĩ	-161
▁độ	-162
▁rất	-163
▁cách	-164
in	-165
▁hơn	-166
âu	-167
▁nhiều	-168
ùng	-169
ươ	-170
ài	-171
▁khác	-172
▁thực	-173
iến	-174
▁đầu	-175
ương	-176
ậy	-177
▁đây	-178
▁-	-179
▁học	-180
▁con	-181
ối	-182
ạo	-183
ổi	-184
ọi	-185
▁chỉ	-186
ếu	-187
▁công	-188
▁trên	-189
▁cái	-190
▁vì	-191
▁nào	-192
▁biết	-193
▁Chúng	-194
▁chuy	-195
▁đề	-196
át	-197
ung	-198
àng	-199
iệu	-200
▁năm	-201
ũng	-202
ơi	-203
▁đi	-204
uốn	-205
▁thứ	-206
▁dụ	-207
▁thành	-208
▁K	-209
ộc	-210
▁:	-211
ắt	-212
▁--	-213
▁số	-214
áng	-215
▁cũng	-216
ích	-217
▁nhà	-218
▁Như	-219
uộc	-220
▁bị	-221
▁to	-222
▁kho	-223
▁quan	-224
ập	-225
▁S	-226
ăn	-227
▁muốn	-228
ồi	-229
úc	-230
ởi	-231
eo	-232
▁Th	-233
em	-234
▁mình	-235
ữa	-236
▁nhưng	-237
▁nhất	-238
▁Nhưng	-239
▁tạo	-240
ưở	-241
ưởng	-242
▁động	-243
án	-244
▁giới	-245
▁chính	-246
▁A	-247
ặt	-248
▁lo	-249
▁nên	-250
ấn	-251
▁vậy	-252
ày	-253
ền	-254
òn	-255
▁lớ	-256
ắc	-257
êu	-258
▁hình	-259
ưa	-260
ỏi	-261
ện	-262
iểu	-263
▁giờ	-264
▁hiện	-265
▁sống	-266
▁tiế	-267
▁tại	-268
▁nếu	-269
▁nhận	-270
▁mọi	-271
▁L	-272
ượng	-273
âm	-274
er	-275
ứng	-276
ìn	-277
▁quy	-278
▁cuộc	-279
▁thu	-280
▁cần	-281
▁2	-282
▁hay	-283
am	-284
▁tố	-285
▁tự	-286
ặc	-287
▁thì	-288
▁Tr	-289
ội	-290
ánh	-291
▁đị	-292
ôn	-293
áo	-294
00	-295
▁tất	-296
ọng	-297
▁ông	-298
òng	-299
▁ấy	-300
▁bởi	-301
en	-302
▁tới	-303
▁đồ	-304
▁theo	-305
▁bắt	-306
ẫn	-307
▁còn	-308
▁nhìn	-309
iểm	-310
▁Kh	-311
▁lớn	-312
▁cùng	-313
▁bằng	-314
▁ý	-315
▁cảm	-316
iển	-317
▁tế	-318
▁sau	-319
▁dụng	-320
▁thật	-321
▁cứ	-322
▁lên	-323
▁anh	-324
▁câu	-325
▁bản	-326
ảng	-327
▁tin	-328
▁qua	-329
▁sao	-330
▁thời	-331
▁chuyện	-332
▁trở	-333
iệm	-334
▁G	-335
▁ngày	-336
▁nhân	-337
▁cơ	-338
▁P	-339
▁bộ	-340
▁sinh	-341
ỗi	-342
ục	-343
ia	-344
ảnh	-345
ìm	-346
▁năng	-347
ạt	-348
▁sử	-349
▁trước	-350
▁phát	-351
▁nước	-352
▁đổi	-353
▁Nó	-354
iệt	-355
▁toàn	-356
▁phần	-357
ảo	-358
áy	-359
▁nơi	-360
▁gia	-361
▁do	-362
▁thông	-363
▁dự	-364
▁tìm	-365
▁nhau	-366
ar	-367
▁mới	-368
▁thay	-369
▁lu	-370
▁y	-371
▁vấn	-372
▁định	-373
▁hệ	-374
▁trường	-375
▁D	-376
▁nhiên	-377
▁tính	-378
▁Đây	-379
iễ	-380
ách	-381
▁trình	-382
▁mạ	-383
▁tốt	-384
▁tưởng	-385
▁kết	-386
ấu	-387
ăng	-388
ấp	-389
▁vật	-390
ãy	-391
ảy	-392
▁hàng	-393
▁lý	-394
▁tu	-395
▁hỏi	-396
▁Bạn	-397
ợp	-398
▁máy	-399
▁ảnh	-400
ạc	-401
út	-402
im	-403
▁hợp	-404
áp	-405
▁Đó	-406
▁mặt	-407
ắn	-408
▁tiếp	-409
▁hành	-410
▁nữa	-411
▁kinh	-412
▁gian	-413
▁thức	-414
▁hội	-415
▁vị	-416
▁tuy	-417
▁thiết	-418
▁chiế	-419
▁rồi	-420
ào	-421
▁xem	-422
▁liệu	-423
▁trọng	-424
▁hoá	-425
▁thích	-426
▁cô	-427
▁R	-428
ồn	-429
ệnh	-430
▁đồng	-431
iễn	-432
▁giải	-433
iêu	-434
▁trẻ	-435
▁lượng	-436
ắng	-437
▁hai	-438
▁đo	-439
▁ai	-440
▁thường	-441
▁bất	-442
▁vài	-443
▁đều	-444
▁Ng	-445
▁tiên	-446
▁Một	-447
▁đối	-448
▁sáng	-449
ộng	-450
ển	-451
▁hiểu	-452
▁quá	-453
▁tâm	-454
▁nay	-455
ốc	-456
▁3	-457
▁loại	-458
▁giống	-459
▁lần	-460
▁Vì	-461
▁cứu	-462
▁bao	-463
▁bệnh	-464
▁thống	-465
ịch	-466
ảm	-467
ám	-468
▁viên	-469
êm	-470
ệt	-471
▁nghệ	-472
iền	-473
▁điểm	-474
▁nghĩa	-475
▁ngo	-476
▁gọi	-477
▁Có	-478
▁nhỏ	-479
▁Vậy	-480
▁Họ	-481
▁đưa	-482
▁xu	-483
▁tương	-484
▁hoàn	-485
▁nghiệm	-486
▁quả	-487
▁tác	-488
▁đường	-489
or	-490
▁vẫn	-491
▁xảy	-492
ăm	-493
▁chiếc	-494
▁nguy	-495
▁thuật	-496
▁biệt	-497
▁dùng	-498
ẳng	-499
▁đại	-500
▁hoặc	-501
al	-502
▁bên	-503
▁từng	-504
▁dân	-505
uyền	-506
▁triển	-507
▁lúc	-508
▁chuyển	-509
iệp	-510
ọn	-511
ão	-512
▁diễn	-513
ẩn	-514
▁Điều	-515
▁trị	-516
▁quyết	-517
▁Những	-518
ừng	-519
▁cố	-520
▁cao	-521
▁nghe	-522
úp	-523
▁ăn	-524
▁Ph	-525
▁dạ	-526
▁tuyệt	-527
uốc	-528
▁mỗi	-529
▁tổ	-530
▁cầu	-531
▁khoảng	-532
uối	-533
▁vi	-534
▁Nếu	-535
▁lực	-536
▁kế	-537
▁khu	-538
▁chất	-539
▁phụ	-540
▁lời	-541
▁giáo	-542
ép	-543
ợi	-544
ầm	-545
▁giúp	-546
▁đất	-547
es	-548
óng	-549
▁em	-550
ắp	-551
▁ơn	-552
ứa	-553
▁trung	-554
▁chủ	-555
ẩm	-556
▁bảo	-557
▁nữ	-558
▁giá	-559
▁tiến	-560
os	-561
▁hết	-562
▁phòng	-563
ưới	-564
▁chưa	-565
el	-566
▁tình	-567
▁nghiên	-568
▁Q	-569
▁xuất	-570
ướng	-571
▁xe	-572
▁phí	-573
▁mang	-574
▁liên	-575
▁phân	-576
óc	-577
▁Anh	-578
▁tranh	-579
▁bài	-580
▁đơn	-581
▁não	-582
▁tập	-583
▁truyền	-584
▁tuổi	-585
▁đúng	-586
▁phương	-587
▁điện	-588
▁bình	-589
ậu	-590
▁đặt	-591
▁tượng	-592
▁tay	-593
uống	-594
▁biến	-595
▁Khi	-596
▁tiền	-597
▁giữa	-598
▁J	-599
▁yêu	-600
▁sản	-601
ét	-602
▁tiếng	-603
▁hãy	-604
ạnh	-605
▁ngay	-606
▁tho	-607
▁khả	-608
ặp	-609
▁trả	-610
ít	-611
▁bé	-612
▁khoa	-613
▁Không	-614
▁thú	-615
▁I	-616
▁bỏ	-617
▁lấy	-618
▁khó	-619
ửa	-620
et	-621
▁gần	-622
▁xã	-623
▁hoạt	-624
▁cá	-625
▁chu	-626
▁chiến	-627
▁thị	-628
▁đáng	-629
▁sách	-630
▁Trong	-631
▁5	-632
▁chí	-633
▁phẩm	-634
▁thân	-635
▁pháp	-636
ấm	-637
▁hiệu	-638
▁cuối	-639
▁đời	-640
▁chơi	-641
▁Các	-642
▁mất	-643
▁sức	-644
▁minh	-645
ọc	-646
▁Gi	-647
▁kể	-648
▁so	-649
ẫu	-650
▁Mỹ	-651
is	-652
▁mạnh	-653
▁gh	-654
▁nghiệp	-655
at	-656
▁ngoài	-657
▁4	-658
uồn	-659
ic	-660
óm	-661
▁ít	-662
▁dẫn	-663
▁khí	-664
▁đấy	-665
▁lập	-666
▁tài	-667
▁mô	-668
▁loài	-669
ừa	-670
▁kỳ	-671
▁bức	-672
▁E	-673
ậm	-674
▁tinh	-675
▁luôn	-676
▁dựng	-677
▁xây	-678
▁trí	-679
▁tiêu	-680
▁phố	-681
▁tên	-682
▁vô	-683
uyết	-684
▁văn	-685
▁cộng	-686
▁âm	-687
▁chứng	-688
▁cụ	-689
▁tử	-690
ầy	-691
▁hướng	-692
il	-693
▁nhạc	-694
▁thử	-695
ôm	-696
▁Hãy	-697
▁viết	-698
▁đâu	-699
▁chức	-700
ap	-701
▁nguyên	-702
▁kiến	-703
▁quốc	-704
▁giả	-705
ạm	-706
▁ứng	-707
▁vời	-708
▁chọn	-709
▁giản	-710
▁quyền	-711
▁chế	-712
▁ba	-713
▁đặc	-714
▁tư	-715
▁bố	-716
▁suy	-717
▁chết	-718
▁bào	-719
ạch	-720
iếm	-721
▁mạng	-722
▁W	-723
▁cấp	-724
▁bà	-725
▁vụ	-726
▁triệu	-727
ạp	-728
▁tăng	-729
ẹp	-730
▁thần	-731
▁nền	-732
▁đạo	-733
▁lẽ	-734
▁đứa	-735
▁F	-736
▁phá	-737
it	-738
▁sĩ	-739
▁khỏi	-740
▁di	-741
▁màu	-742
▁X	-743
as	-744
▁đánh	-745
ua	-746
▁mẹ	-747
▁gặp	-748
ắm	-749
▁tháng	-750
▁Thế	-751
▁dưới	-752
▁..	-753
ol	-754
▁chút	-755
▁xuống	-756
ồng	-757
▁gắng	-758
âng	-759
▁phép	-760
▁khá	-761
▁nhóm	-762
▁quanh	-763
▁mở	-764
▁dịch	-765
▁khiến	-766
▁vực	-767
▁xác	-768
▁dữ	-769
▁10	-770
▁Bây	-771
▁%	-772
▁án	-773
ãi	-774
▁chia	-775
▁bay	-776
000	-777
▁duy	-778
▁thêm	-779
▁tham	-780
▁trò	-781
▁Ô	-782
▁thuyết	-783
▁mức	-784
▁nhanh	-785
▁quay	-786
▁dạng	-787
▁Ho	-788
▁gây	-789
▁rõ	-790
▁cực	-791
▁đàn	-792
▁vọng	-793
▁nguồn	-794
▁bu	-795
▁vùng	-796
▁cảnh	-797
▁bây	-798
▁dù	-799
▁đẹp	-800
▁báo	-801
▁tục	-802
iê	-803
▁giác	-804
▁chắc	-805
▁...	-806
▁sát	-807
▁xa	-808
▁càng	-809
▁dễ	-810
▁đủ	-811
▁ví	-812
▁cây	-813
▁trang	-814
▁20	-815
▁19	-816
iêng	-817
▁nhớ	-818
▁phía	-819
▁O	-820
▁phim	-821
▁chú	-822
áu	-823
▁biểu	-824
▁hôm	-825
▁hưởng	-826
ưu	-827
▁đoạn	-828
▁chị	-829
▁chẳng	-830
▁vũ	-831
▁kì	-832
▁kiểm	-833
▁trái	-834
▁thương	-835
▁Quốc	-836
ter	-837
ủng	-838
▁dài	-839
▁Ông	-840
▁vòng	-841
▁luận	-842
le	-843
▁ngữ	-844
▁phản	-845
▁đôi	-846
▁Trung	-847
ạy	-848
▁đầy	-849
▁dục	-850
▁lợi	-851
▁kia	-852
ựa	-853
▁giảm	-854
▁thậm	-855
ằm	-856
▁thuốc	-857
▁kiếm	-858
▁ty	-859
▁vu	-860
▁vừa	-861
▁chân	-862
▁tích	-863
▁thư	-864
▁trăm	-865
▁thôi	-866
apos	-867
om	-868
and	-869
▁6	-870
ac	-871
ưỡ	-872
▁hộ	-873
▁;	-874
▁đình	-875
iếu	-876
us	-877
▁hạn	-878
▁bước	-879
▁giao	-880
àu	-881
▁lệ	-882
▁lai	-883
▁Người	-884
▁đô	-885
▁chi	-886
▁sâu	-887
▁Tại	-888
▁tỉ	-889
▁môi	-890
▁toán	-891
▁trải	-892
▁trời	-893
iềm	-894
ụp	-895
▁tồn	-896
▁diện	-897
▁rộng	-898
▁phục	-899
▁Y	-900
▁giữ	-901
▁Bởi	-902
▁thanh	-903
▁dành	-904
▁nối	-905
▁địa	-906
▁đoán	-907
▁lòng	-908
ED	-909
uốt	-910
▁thuộc	-911
ad	-912
▁riêng	-913
▁tạp	-914
▁sợ	-915
▁mắt	-916
▁mục	-917
▁đứng	-918
▁!	-919
▁nổi	-920
▁phủ	-921
▁dạy	-922
▁lã	-923
▁vệ	-924
▁thí	-925
▁vẻ	-926
▁sai	-927
▁đạt	-928
▁nghi	-929
▁căn	-930
▁thúc	-931
▁kỹ	-932
▁luật	-933
▁sẻ	-934
▁tối	-935
▁mẫu	-936
▁xung	-937
▁lịch	-938
ob	-939
▁ánh	-940
▁bàn	-941
▁đọc	-942
ặng	-943
▁lớp	-944
ur	-945
ạng	-946
▁Cảm	-947
▁kỷ	-948
▁trụ	-949
▁yếu	-950
▁khắp	-951
▁TED	-952
#9	-953
▁&#9	-954
▁vui	-955
▁trông	-956
▁khoẻ	-957
▁tiết	-958
▁chương	-959
▁ngồi	-960
▁chạy	-961
▁gái	-962
àm	-963
▁phút	-964
▁sư	-965
▁cậu	-966
▁trợ	-967
▁cuốn	-968
▁7	-969
▁mối	-970
▁sắc	-971
▁buổi	-972
ượt	-973
▁chắn	-974
▁hầu	-975
▁suốt	-976
▁9	-977
id	-978
▁kiện	-979
ew	-980
ra	-981
▁biển	-982
▁trúc	-983
▁8	-984
▁mù	-985
▁chung	-986
--	-987
▁ké	-988
▁ngôn	-989
▁mua	-990
▁doanh	-991
oo	-992
▁kiểu	-993
▁Phi	-994
▁Tất	-995
▁Vâng	-996
èo	-997
▁cửa	-998
▁vận	-999
eb	-1000
▁cánh	-1001
▁khám	-1002
▁sở	-1003
▁ngạc	-1004
▁xét	-1005
▁xúc	-1006
ốt	-1007
▁ràng	-1008
▁lâu	-1009
▁tuần	-1010
▁thoại	-1011
▁bán	-1012
▁Sau	-1013
▁hiểm	-1014
▁hồi	-1015
▁cấu	-1016
▁nhiệm	-1017
▁200	-1018
ưỡng	-1019
▁phức	-1020
▁thiên	-1021
▁kích	-1022
oi	-1023
▁cung	-1024
ĩnh	-1025
▁nằm	-1026
▁chụp	-1027
▁chuyên	-1028
▁nhập	-1029
▁la	-1030
▁Ở	-1031
ing	-1032
▁bóng	-1033
▁ngôi	-1034
▁kẻ	-1035
▁thái	-1036
▁cạnh	-1037
uyện	-1038
ữu	-1039
▁độc	-1040
uyên	-1041
▁viện	-1042
▁băng	-1043
▁hạnh	-1044
▁hữu	-1045
▁chứ	-1046
ếp	-1047
▁hoà	-1048
▁chỗ	-1049
▁ngành	-1050
▁trưởng	-1051
▁vẽ	-1052
▁khủng	-1053
▁thập	-1054
▁ích	-1055
ẵn	-1056
▁đa	-1057
ỏng	-1058
▁chuẩn	-1059
▁Xin	-1060
▁bác	-1061
▁quý	-1062
▁tra	-1063
ẩy	-1064
▁ghi	-1065
▁phúc	-1066
▁thiếu	-1067
▁Cô	-1068
▁chịu	-1069
ửi	-1070
▁Thật	-1071
▁hề	-1072
▁hoạ	-1073
▁lắng	-1074
▁xanh	-1075
▁tấm	-1076
▁hu	-1077
▁tệ	-1078
▁sẵn	-1079
▁niệm	-1080
ộn	-1081
▁Nên	-1082
▁tức	-1083
▁phạm	-1084
▁nhiêu	-1085
▁Qu	-1086
▁Sự	-1087
▁khăn	-1088
▁trai	-1089
ro	-1090
▁tái	-1091
▁đau	-1092
▁an	-1093
▁sắp	-1094
úi	-1095
▁áp	-1096
▁hơi	-1097
▁Cái	-1098
▁lạ	-1099
▁Giờ	-1100
▁dung	-1101
ón	-1102
▁Thực	-1103
▁mặc	-1104
ốn	-1105
uôi	-1106
▁chống	-1107
▁lạc	-1108
▁thất	-1109
un	-1110
▁cải	-1111
▁dựa	-1112
▁mã	-1113
▁châu	-1114
▁mong	-1115
▁đóng	-1116
▁xử	-1117
▁lựa	-1118
▁trực	-1119
▁đội	-1120
▁St	-1121
▁ban	-1122
▁bánh	-1123
▁hậu	-1124
▁cổ	-1125
▁xin	-1126
▁tổng	-1127
▁khổ	-1128
▁nội	-1129
▁30	-1130
▁New	-1131
úa	-1132
▁khắc	-1133
ưng	-1134
▁mật	-1135
▁vượt	-1136
▁da	-1137
▁nhu	-1138
▁tỷ	-1139
▁xấu	-1140
▁tầm	-1141
▁chăm	-1142
▁Do	-1143
▁ẩn	-1144
▁dần	-1145
▁gửi	-1146
▁toà	-1147
▁Làm	-1148
▁hứng	-1149
▁thiện	-1150
▁hạt	-1151
ah	-1152
ig	-1153
▁tim	-1154
▁Để	-1155
re	-1156
▁hy	-1157
▁In	-1158
▁lưu	-1159
▁danh	-1160
ín	-1161
▁chiều	-1162
▁nhiệt	-1163
▁trạng	-1164
▁lãnh	-1165
▁đột	-1166
▁w	-1167
▁100	-1168
▁dầu	-1169
▁niềm	-1170
▁tội	-1171
▁nghèo	-1172
▁nhiễ	-1173
net	-1174
▁nạn	-1175
▁ngoại	-1176
▁cận	-1177
▁sang	-1178
ồm	-1179
▁50	-1180
th	-1181
▁cha	-1182
▁chữa	-1183
▁kính	-1184
▁15	-1185
▁in	-1186
▁xo	-1187
▁ung	-1188
▁đấu	-1189
▁Châu	-1190
▁dấu	-1191
▁Độ	-1192
▁Con	-1193
▁đẩy	-1194
▁ổ	-1195
▁nỗi	-1196
▁may	-1197
▁kéo	-1198
▁hát	-1199
op	-1200
▁thách	-1201
▁ngủ	-1202
▁thủ	-1203
▁đen	-1204
▁khách	-1205
▁tắc	-1206
▁ô	-1207
▁giấy	-1208
▁ngược	-1209
▁phi	-1210
▁nuôi	-1211
▁ước	-1212
▁bại	-1213
li	-1214
ỉnh	-1215
iếp	-1216
▁Tây	-1217
▁chữ	-1218
▁quản	-1219
▁soát	-1220
▁lỗi	-1221
▁cử	-1222
▁nửa	-1223
▁lĩnh	-1224
▁tiện	-1225
ist	-1226
▁mắc	-1227
▁hoạch	-1228
▁lí	-1229
▁mơ	-1230
ẩu	-1231
ran	-1232
▁gồm	-1233
▁nhiễm	-1234
▁tốc	-1235
▁dương	-1236
▁khiển	-1237
▁tả	-1238
▁sóc	-1239
õi	-1240
▁gó	-1241
▁cắt	-1242
ternet	-1243
▁Mọi	-1244
▁hại	-1245
▁Al	-1246
▁giết	-1247
▁Tuy	-1248
▁thẳng	-1249
▁khối	-1250
▁quen	-1251
ed	-1252
▁bày	-1253
▁dây	-1254
▁quân	-1255
ri	-1256
▁ca	-1257
▁tàu	-1258
▁đông	-1259
▁đích	-1260
▁chiếu	-1261
▁đức	-1262
▁lưới	-1263
▁nhờ	-1264
▁đá	-1265
▁gen	-1266
▁thấp	-1267
ard	-1268
▁dòng	-1269
▁mê	-1270
ag	-1271
▁Chỉ	-1272
▁cư	-1273
▁bầu	-1274
▁lái	-1275
▁ngờ	-1276
▁thi	-1277
▁cười	-1278
▁Ngh	-1279
▁đêm	-1280
▁niên	-1281
▁đổ	-1282
▁dàng	-1283
▁phóng	-1284
lo	-1285
▁khai	-1286
▁hỗ	-1287
▁sàng	-1288
ặn	-1289
▁rối	-1290
▁xếp	-1291
▁chấp	-1292
▁ngắn	-1293
▁gốc	-1294
▁tận	-1295
▁su	-1296
▁gấp	-1297
▁phong	-1298
▁đem	-1299
▁nông	-1300
▁đỡ	-1301
▁Với	-1302
▁bạo	-1303
▁giây	-1304
▁kỉ	-1305
▁lắm	-1306
▁sân	-1307
▁trách	-1308
▁gắn	-1309
▁bốn	-1310
▁cáo	-1311
▁vai	-1312
▁12	-1313
▁hồ	-1314
▁cân	-1315
▁trừ	-1316
▁bí	-1317
▁Rồi	-1318
ton	-1319
▁đợi	-1320
èn	-1321
▁ngàn	-1322
▁tôn	-1323
▁phẫu	-1324
ey	-1325
ầng	-1326
▁hài	-1327
▁thụ	-1328
▁xuyên	-1329
ab	-1330
▁thơ	-1331
▁nhảy	-1332
▁chuyến	-1333
▁hoa	-1334
▁dừng	-1335
▁siêu	-1336
1;	-1337
▁&#91;	-1338
▁kĩ	-1339
3;	-1340
▁màn	-1341
▁nghị	-1342
▁&#93;	-1343
ak	-1344
▁ký	-1345
▁lao	-1346
▁web	-1347
▁giai	-1348
▁tầng	-1349
▁đảm	-1350
▁chim	-1351
oc	-1352
▁ảo	-1353
▁tải	-1354
▁hấp	-1355
deo	-1356
▁video	-1357
▁Mar	-1358
▁phổ	-1359
▁o	-1360
av	-1361
ine	-1362
ork	-1363
▁khởi	-1364
,000	-1365
▁ngăn	-1366
▁Jo	-1367
▁tù	-1368
▁nhắc	-1369
▁rừng	-1370
▁Nam	-1371
▁chỉnh	-1372
ót	-1373
▁góc	-1374
ẳn	-1375
▁khái	-1376
▁thải	-1377
▁Internet	-1378
▁hút	-1379
▁Ai	-1380
▁hộp	-1381
▁nghiêm	-1382
▁món	-1383
▁Được	-1384
▁luyện	-1385
▁kê	-1386
▁ổn	-1387
▁nam	-1388
▁khuôn	-1389
▁tín	-1390
▁York	-1391
▁giàu	-1392
son	-1393
▁lá	-1394
▁cập	-1395
▁chuột	-1396
obot	-1397
▁Ví	-1398
▁Còn	-1399
▁già	-1400
ềm	-1401
▁coi	-1402
▁liệt	-1403
▁ngân	-1404
ow	-1405
▁đỏ	-1406
▁đám	-1407
ou	-1408
ill	-1409
▁tấn	-1410
▁phận	-1411
▁tuyến	-1412
▁thắng	-1413
han	-1414
▁trao	-1415
▁18	-1416
▁Hoa	-1417
▁Chúa	-1418
▁Cho	-1419
▁huỷ	-1420
▁tai	-1421
▁đảo	-1422
▁môn	-1423
▁nặng	-1424
▁hẳn	-1425
▁Trái	-1426
▁chứa	-1427
òi	-1428
▁dậy	-1429
▁mềm	-1430
▁Câu	-1431
▁vân	-1432
▁Ta	-1433
▁nóng	-1434
▁mấy	-1435
ọt	-1436
▁phù	-1437
▁Bắc	-1438
.000	-1439
▁Công	-1440
▁cháu	-1441
▁mạch	-1442
▁chóng	-1443
ịp	-1444
▁40	-1445
▁mẽ	-1446
iếng	-1447
▁mùa	-1448
▁ống	-1449
▁quyển	-1450
▁buộc	-1451
▁điển	-1452
▁ti	-1453
▁máu	-1454
▁Hiện	-1455
▁sóng	-1456
▁dưỡng	-1457
▁thiệu	-1458
▁trùng	-1459
ie	-1460
▁hạ	-1461
▁hãi	-1462
ấc	-1463
ein	-1464
▁khán	-1465
▁linh	-1466
▁cũ	-1467
▁rời	-1468
▁thảo	-1469
▁sơ	-1470
▁chủng	-1471
▁dõi	-1472
▁uống	-1473
▁điên	-1474
▁Kỳ	-1475
▁chờ	-1476
▁tồi	-1477
▁tảng	-1478
▁robot	-1479
ik	-1480
▁Từ	-1481
▁lộ	-1482
▁Nhà	-1483
▁loạn	-1484
▁lầm	-1485
▁đáp	-1486
▁buồn	-1487
▁vững	-1488
ev	-1489
um	-1490
▁mắn	-1491
▁sửa	-1492
▁Liệu	-1493
▁góp	-1494
▁thưởng	-1495
▁lồ	-1496
▁lan	-1497
▁Rất	-1498
▁khổng	-1499
▁tránh	-1500
▁tường	-1501
▁25	-1502
▁Vào	-1503
▁miễn	-1504
▁khoản	-1505
▁Thứ	-1506
▁đói	-1507
ich	-1508
▁du	-1509
▁Mỗi	-1510
▁đèn	-1511
▁lạnh	-1512
▁chàng	-1513
▁f	-1514
▁mái	-1515
▁tổn	-1516
▁ủng	-1517
▁Sh	-1518
▁bảng	-1519
▁cơn	-1520
▁trắng	-1521
ord	-1522
▁lẫn	-1523
▁tộc	-1524
▁mảnh	-1525
▁đỉnh	-1526
▁diệu	-1527
▁tờ	-1528
▁núi	-1529
ớm	-1530
▁Đông	-1531
▁Đúng	-1532
▁Hai	-1533
▁Ngày	-1534
▁phỏng	-1535
▁tiểu	-1536
uổi	-1537
▁đào	-1538
▁bề	-1539
▁trì	-1540
▁tốn	-1541
▁giọng	-1542
ùa	-1543
▁Bà	-1544
▁ấn	-1545
▁áo	-1546
▁trận	-1547
ul	-1548
▁hảo	-1549
▁quên	-1550
▁trồng	-1551
▁An	-1552
▁giỏi	-1553
▁rơi	-1554
▁quảng	-1555
▁Hồi	-1556
▁mãi	-1557
▁chạm	-1558
st	-1559
▁cỡ	-1560
▁cầm	-1561
▁kim	-1562
▁khuẩn	-1563
ph	-1564
▁bật	-1565
▁chó	-1566
▁bang	-1567
▁bền	-1568
▁vốn	-1569
ent	-1570
▁phấn	-1571
▁Chính	-1572
▁nghìn	-1573
▁đương	-1574
▁sánh	-1575
▁hôn	-1576
istan	-1577
▁tiềm	-1578
▁lương	-1579
ub	-1580
▁chấm	-1581
▁nghỉ	-1582
▁Năm	-1583
▁Đại	-1584
▁khoá	-1585
▁vàng	-1586
▁chiếm	-1587
▁mời	-1588
▁hoảng	-1589
▁nắm	-1590
▁khích	-1591
▁vợ	-1592
▁cam	-1593
▁hiển	-1594
▁11	-1595
▁Em	-1596
▁bữa	-1597
▁phối	-1598
▁ngừng	-1599
▁hi	-1600
▁hào	-1601
▁lửa	-1602
▁vỡ	-1603
▁làng	-1604
▁điệu	-1605
▁thịt	-1606
▁xương	-1607
▁hổ	-1608
▁vĩ	-1609
▁ghế	-1610
▁tách	-1611
▁đừng	-1612
▁quần	-1613
ly	-1614
ặm	-1615
io	-1616
▁nổ	-1617
▁ong	-1618
▁chuỗi	-1619
▁dường	-1620
▁rút	-1621
ib	-1622
▁chảy	-1623
▁khẩu	-1624
▁kịch	-1625
oog	-1626
▁sót	-1627
▁biên	-1628
▁đằng	-1629
▁Trên	-1630
hn	-1631
▁gió	-1632
▁sớm	-1633
▁loạt	-1634
▁thoát	-1635
la	-1636
▁mu	-1637
▁khứ	-1638
▁chậm	-1639
▁khuy	-1640
▁chồng	-1641
▁dĩ	-1642
ãn	-1643
ẹn	-1644
▁sạch	-1645
▁Trước	-1646
ian	-1647
▁tàn	-1648
▁tắt	-1649
▁80	-1650
▁giấc	-1651
▁Br	-1652
oogle	-1653
▁Vấn	-1654
ứt	-1655
▁bè	-1656
▁lặp	-1657
▁nghề	-1658
▁gợi	-1659
▁suất	-1660
▁mũ	-1661
if	-1662
ựng	-1663
▁quỹ	-1664
ex	-1665
ir	-1666
ươi	-1667
ut	-1668
ói	-1669
▁Cách	-1670
ry	-1671
ack	-1672
ick	-1673
▁lỗ	-1674
▁lối	-1675
▁trưng	-1676
az	-1677
man	-1678
▁phê	-1679
▁ngại	-1680
▁nhé	-1681
▁tán	-1682
▁túi	-1683
▁sông	-1684
▁trại	-1685
▁Ar	-1686
▁trữ	-1687
▁Google	-1688
▁Cám	-1689
▁nguyện	-1690
ud	-1691
▁Hay	-1692
▁dặm	-1693
▁kiệm	-1694
▁thước	-1695
▁To	-1696
▁viễn	-1697
▁Nói	-1698
▁đăng	-1699
▁cờ	-1700
▁cu	-1701
▁né	-1702
▁sỹ	-1703
▁Đầu	-1704
▁quang	-1705
▁u	-1706
▁Việc	-1707
▁đuổi	-1708
▁kháng	-1709
▁bụ	-1710
▁cà	-1711
▁Kho	-1712
▁bơi	-1713
▁nâng	-1714
est	-1715
▁60	-1716
ìa	-1717
▁vỏ	-1718
▁kém	-1719
▁nhắn	-1720
ip	-1721
▁ghép	-1722
ưỡi	-1723
▁thăm	-1724
▁sốt	-1725
▁phiên	-1726
▁cú	-1727
▁rẻ	-1728
▁thở	-1729
▁thảm	-1730
▁khoảnh	-1731
ĩa	-1732
ãng	-1733
▁nhật	-1734
▁tàng	-1735
▁nỗ	-1736
▁tụ	-1737
▁vết	-1738
▁Đất	-1739
▁lặng	-1740
▁thoả	-1741
▁bọn	-1742
one	-1743
▁nhẹ	-1744
▁sáu	-1745
▁hoang	-1746
▁Là	-1747
▁lọc	-1748
▁Nhật	-1749
▁xoay	-1750
ans	-1751
▁can	-1752
▁tròn	-1753
▁bờ	-1754
▁Thu	-1755
▁hùng	-1756
▁trống	-1757
ell	-1758
▁199	-1759
▁John	-1760
▁điệp	-1761
ec	-1762
▁ưu	-1763
▁Bản	-1764
bon	-1765
▁Car	-1766
▁mùi	-1767
▁đẳng	-1768
ook	-1769
▁đế	-1770
▁Lúc	-1771
▁voi	-1772
▁ngẫu	-1773
▁doạ	-1774
▁lục	-1775
▁đam	-1776
▁HI	-1777
▁bò	-1778
▁Theo	-1779
▁lành	-1780
aw	-1781
amp	-1782
▁Bộ	-1783
▁lính	-1784
ủi	-1785
▁tô	-1786
▁đựng	-1787
ert	-1788
▁thừa	-1789
▁thuận	-1790
ee	-1791
▁thác	-1792
▁rác	-1793
▁Ngay	-1794
▁thuỷ	-1795
▁Ba	-1796
▁đoàn	-1797
▁HIV	-1798
▁cấy	-1799
ớt	-1800
art	-1801
▁ma	-1802
▁pr	-1803
▁Cuối	-1804
▁trích	-1805
ion	-1806
▁Lo	-1807
▁chặt	-1808
▁nhuận	-1809
▁thang	-1810
era	-1811
▁16	-1812
▁đe	-1813
▁huy	-1814
▁họp	-1815
▁đạp	-1816
▁giảng	-1817
▁tan	-1818
▁Đức	-1819
▁Af	-1820
▁Nào	-1821
▁lãng	-1822
▁lược	-1823
▁miếng	-1824
eg	-1825
ore	-1826
ườn	-1827
▁Cậu	-1828
▁cãi	-1829
▁nhựa	-1830
▁lắp	-1831
▁tật	-1832
▁khấu	-1833
▁Đừng	-1834
▁Cuộc	-1835
▁chặn	-1836
▁90	-1837
▁Mà	-1838
▁giám	-1839
▁chào	-1840
▁thai	-1841
▁ngoái	-1842
▁Lu	-1843
▁lễ	-1844
▁Hoặc	-1845
▁mừng	-1846
éo	-1847
ess	-1848
▁yên	-1849
▁đòi	-1850
▁ngang	-1851
▁Is	-1852
▁diệt	-1853
▁thận	-1854
▁huống	-1855
all	-1856
▁14	-1857
▁cản	-1858
▁mây	-1859
▁mại	-1860
▁Cũng	-1861
▁thao	-1862
▁Afg	-1863
▁Chẳng	-1864
▁hương	-1865
▁AD	-1866
▁dị	-1867
▁sổ	-1868
▁Dav	-1869
▁70	-1870
▁ko	-1871
▁tri	-1872
▁chép	-1873
▁đống	-1874
orn	-1875
▁Am	-1876
▁201	-1877
▁cát	-1878
▁sợi	-1879
▁đùa	-1880
▁Thay	-1881
▁thấu	-1882
▁vong	-1883
▁vú	-1884
▁thù	-1885
▁tràn	-1886
ớn	-1887
rus	-1888
▁cặp	-1889
▁cứng	-1890
ge	-1891
od	-1892
ash	-1893
▁tỏ	-1894
▁ám	-1895
▁cám	-1896
ff	-1897
▁Ken	-1898
▁mập	-1899
▁nhằm	-1900
▁tuyên	-1901
les	-1902
▁bom	-1903
▁mực	-1904
▁Đối	-1905
▁Nhiều	-1906
▁phiếu	-1907
▁13	-1908
▁ADN	-1909
▁khía	-1910
▁nhịp	-1911
▁súng	-1912
▁Dù	-1913
▁bi	-1914
▁bắn	-1915
▁bối	-1916
▁sụp	-1917
▁chán	-1918
▁hiếm	-1919
▁trào	-1920
▁tiêm	-1921
tr	-1922
èm	-1923
▁hà	-1924
▁tá	-1925
▁kêu	-1926
▁ngu	-1927
▁Mẹ	-1928
▁Cal	-1929
▁Chr	-1930
▁móc	-1931
▁Fran	-1932
▁ngọn	-1933
▁Afghan	-1934
ậc	-1935
▁lừa	-1936
▁prot	-1937
▁khung	-1938
iv	-1939
▁óc	-1940
▁dối	-1941
▁Bằng	-1942
▁Pháp	-1943
▁liền	-1944
▁hoàng	-1945
▁triết	-1946
▁gỗ	-1947
▁hè	-1948
▁béo	-1949
ượu	-1950
▁côn	-1951
▁cục	-1952
▁gam	-1953
▁đua	-1954
ớp	-1955
▁0	-1956
att	-1957
▁mưa	-1958
▁thờ	-1959
▁Về	-1960
▁kí	-1961
▁Phải	-1962
▁bổ	-1963
▁tí	-1964
▁Liên	-1965
▁căng	-1966
▁khảo	-1967
▁thầy	-1968
50	-1969
ide	-1970
▁bậc	-1971
▁hối	-1972
▁mạc	-1973
▁đập	-1974
▁Thái	-1975
▁thoải	-1976
▁lũ	-1977
▁nấm	-1978
▁Phần	-1979
▁ngưỡng	-1980
▁17	-1981
▁mỏ	-1982
▁chốt	-1983
ail	-1984
eet	-1985
▁ác	-1986
▁chối	-1987
▁táo	-1988
▁huấn	-1989
▁rượu	-1990
▁thuyền	-1991
yl	-1992
▁mét	-1993
▁hỗn	-1994
▁trầm	-1995
▁nhũng	-1996
▁Sẽ	-1997
▁ghét	-1998
▁vâng	-1999
NA	-2000
ers	-2001
▁mì	-2002
▁ức	-2003
▁Har	-2004
▁bảy	-2005
▁Iran	-2006
▁biện	-2007
▁khuyến	-2008
▁che	-2009
▁song	-2010
ov	-2011
▁nút	-2012
▁đắt	-2013
▁cháy	-2014
▁truy	-2015
▁tỉnh	-2016
▁cỏ	-2017
▁Hôm	-2018
▁ngón	-2019
▁ạ	-2020
▁hắn	-2021
▁hồn	-2022
▁phán	-2023
▁Afghanistan	-2024
ock	-2025
▁thọ	-2026
▁xứng	-2027
ond	-2028
▁21	-2029
▁mạo	-2030
▁David	-2031
ya	-2032
▁Lan	-2033
▁túc	-2034
▁Nhìn	-2035
▁thiểu	-2036
ợt	-2037
log	-2038
▁ru	-2039
▁gọn	-2040
▁mũi	-2041
▁săn	-2042
▁thả	-2043
▁protein	-2044
▁cụt	-2045
▁xoá	-2046
▁giận	-2047
▁khát	-2048
▁trứng	-2049
uc	-2050
xy	-2051
▁cỗ	-2052
land	-2053
▁bông	-2054
▁dinh	-2055
▁thạch	-2056
▁Can	-2057
▁Hầu	-2058
▁Mặt	-2059
▁mai	-2060
▁khiếp	-2061
▁à	-2062
▁dày	-2063
▁rủi	-2064
▁tia	-2065
▁thuê	-2066
▁thiệp	-2067
eria	-2068
▁198	-2069
▁Par	-2070
▁Sao	-2071
▁nấu	-2072
▁đắn	-2073
▁xong	-2074
sh	-2075
▁Ok	-2076
▁mò	-2077
▁mộ	-2078
▁Đã	-2079
▁cột	-2080
▁lộn	-2081
▁binh	-2082
▁hước	-2083
▁thánh	-2084
ùi	-2085
▁TV	-2086
▁kẹ	-2087
▁bãi	-2088
▁bột	-2089
▁giành	-2090
ướt	-2091
▁ngũ	-2092
▁tóc	-2093
▁đốc	-2094
▁đốt	-2095
▁Char	-2096
▁truyện	-2097
▁i	-2098
ỗng	-2099
▁phó	-2100
▁xưa	-2101
▁đài	-2102
▁chẩn	-2103
▁răng	-2104
iệng	-2105
▁Geo	-2106
▁dọc	-2107
▁mát	-2108
▁thuần	-2109
ico	-2110
▁bạc	-2111
▁rưỡi	-2112
▁huyết	-2113
ti	-2114
▁nơ	-2115
rael	-2116
▁miền	-2117
▁chừng	-2118
ýt	-2119
ara	-2120
▁Lý	-2121
▁Sc	-2122
▁đĩa	-2123
▁tặng	-2124
▁gương	-2125
lin	-2126
▁bó	-2127
▁ro	-2128
▁ấm	-2129
▁ném	-2130
▁rắc	-2131
▁xâm	-2132
▁hiến	-2133
▁nhấn	-2134
ain	-2135
ama	-2136
enn	-2137
▁500	-2138
▁cốt	-2139
▁nhỉ	-2140
▁Đôi	-2141
▁ngài	-2142
▁vườn	-2143
▁Ad	-2144
▁xạ	-2145
▁Ban	-2146
▁khóc	-2147
▁trộn	-2148
▁24	-2149
▁Hy	-2150
▁Tổ	-2151
▁lẻ	-2152
▁quê	-2153
▁than	-2154
▁Israel	-2155
aceb	-2156
▁cẩn	-2157
▁tuỳ	-2158
iếc	-2159
▁Bra	-2160
▁dính	-2161
acebook	-2162
ada	-2163
ina	-2164
▁Cơ	-2165
▁Rob	-2166
▁rào	-2167
▁đớn	-2168
▁miệng	-2169
▁San	-2170
▁bắc	-2171
▁tuệ	-2172
▁tạm	-2173
▁thẩm	-2174
ce	-2175
▁hẹn	-2176
▁đón	-2177
▁chai	-2178
▁miêu	-2179
▁sa	-2180
▁cốc	-2181
▁mẩu	-2182
▁Giáo	-2183
▁lỏng	-2184
▁ngầm	-2185
▁phổi	-2186
ID	-2187
▁gà	-2188
▁tò	-2189
▁Dan	-2190
▁đáy	-2191
▁nhạy	-2192
▁Facebook	-2193
ug	-2194
▁đậu	-2195
▁blog	-2196
▁hiệp	-2197
▁vuông	-2198
co	-2199
ta	-2200
ốm	-2201
ite	-2202
▁ơi	-2203
▁lão	-2204
▁Chắc	-2205
▁Mich	-2206
▁bạch	-2207
▁game	-2208
▁hạng	-2209
▁thoảng	-2210
ith	-2211
ley	-2212
▁Cả	-2213
▁Thời	-2214
▁trôi	-2215
▁Calif	-2216
▁cường	-2217
ek	-2218
ep	-2219
▁ly	-2220
▁Cực	-2221
▁tây	-2222
ornia	-2223
▁kiên	-2224
▁quái	-2225
▁Chuyện	-2226
ach	-2227
▁Mĩ	-2228
▁rồ	-2229
▁dàn	-2230
▁thợ	-2231
▁hoại	-2232
▁Giống	-2233
▁California	-2234
▁DNA	-2235
▁pin	-2236
▁Bill	-2237
▁Thậm	-2238
▁hằng	-2239
▁quán	-2240
▁trắc	-2241
te	-2242
ẻo	-2243
amb	-2244
▁hứa	-2245
▁leo	-2246
▁tóm	-2247
▁chấn	-2248
▁trạm	-2249
▁nướng	-2250
ron	-2251
▁lây	-2252
▁ngã	-2253
▁giày	-2254
▁quét	-2255
▁đảng	-2256
▁giường	-2257
▁Tw	-2258
▁nét	-2259
▁ngựa	-2260
und	-2261
▁rô	-2262
▁khô	-2263
▁nho	-2264
▁đeo	-2265
▁Kinh	-2266
▁chăng	-2267
alk	-2268
▁Mc	-2269
▁Mo	-2270
▁OK	-2271
▁197	-2272
▁lưng	-2273
ẫm	-2274
▁mẻ	-2275
▁Lần	-2276
▁mãn	-2277
▁vắc	-2278
▁Cùng	-2279
▁tuyết	-2280
og	-2281
▁Col	-2282
▁Kết	-2283
▁Đến	-2284
▁đếm	-2285
▁tiếc	-2286
▁tĩnh	-2287
ass	-2288
▁kèm	-2289
▁mèo	-2290
exico	-2291
▁Nhân	-2292
▁Chris	-2293
igh	-2294
▁The	-2295
▁dán	-2296
▁Khán	-2297
▁bụng	-2298
▁ninh	-2299
▁trăng	-2300
ẫy	-2301
ụt	-2302
▁dò	-2303
▁hô	-2304
anda	-2305
▁300	-2306
▁Ira	-2307
▁gói	-2308
▁tám	-2309
▁cong	-2310
ate	-2311
▁dã	-2312
▁Bất	-2313
▁Pau	-2314
▁lăn	-2315
▁hỏng	-2316
ber	-2317
▁quà	-2318
▁Mexico	-2319
▁khuyên	-2320
▁gỡ	-2321
▁hư	-2322
▁iP	-2323
▁ép	-2324
▁giấu	-2325
▁tiệc	-2326
▁trần	-2327
▁vinh	-2328
▁email	-2329
hi	-2330
IDS	-2331
▁mờ	-2332
▁lôi	-2333
▁2000	-2334
▁Nghệ	-2335
▁thói	-2336
ùm	-2337
ath	-2338
tin	-2339
▁cự	-2340
▁lề	-2341
▁Hoá	-2342
▁cụm	-2343
▁dứt	-2344
stein	-2345
▁lệnh	-2346
▁Canada	-2347
urg	-2348
zil	-2349
▁gã	-2350
▁tị	-2351
▁Hội	-2352
▁heo	-2353
▁lâm	-2354
▁chìm	-2355
▁kênh	-2356
▁ngon	-2357
▁trốn	-2358
▁phiền	-2359
▁dư	-2360
▁Nga	-2361
▁bão	-2362
▁lãm	-2363
▁lặn	-2364
▁tung	-2365
ington	-2366
▁Brazil	-2367
▁ư	-2368
ler	-2369
▁Cứ	-2370
▁gõ	-2371
▁im	-2372
▁and	-2373
▁đực	-2374
▁Geor	-2375
▁buôn	-2376
▁khao	-2377
▁ngọt	-2378
ky	-2379
▁1.	-2380
▁Mặc	-2381
▁giơ	-2382
▁AIDS	-2383
▁Dĩ	-2384
▁va	-2385
ford	-2386
▁Vài	-2387
▁cất	-2388
▁dao	-2389
▁gián	-2390
▁mệnh	-2391
▁Điển	-2392
▁khoan	-2393
▁thăng	-2394
▁virus	-2395
ợn	-2396
ham	-2397
ind	-2398
ram	-2399
▁hố	-2400
▁cúm	-2401
▁quí	-2402
▁sàn	-2403
▁thuế	-2404
▁Trường	-2405
▁And	-2406
▁Bar	-2407
▁Ber	-2408
▁Mon	-2409
▁Tim	-2410
▁hàm	-2411
ondon	-2412
quang	-2413
▁hang	-2414
▁thổi	-2415
▁trưa	-2416
▁Sp	-2417
▁xí	-2418
▁Pal	-2419
▁bận	-2420
▁bếp	-2421
▁car	-2422
▁sữa	-2423
▁dáng	-2424
▁lang	-2425
▁xinh	-2426
▁London	-2427
ric	-2428
▁Ap	-2429
▁Rập	-2430
▁lõi	-2431
▁bùng	-2432
▁tươi	-2433
▁Kenya	-2434
ượn	-2435
▁Ed	-2436
▁Le	-2437
▁Gần	-2438
▁Học	-2439
▁Jam	-2440
▁bụi	-2441
▁làn	-2442
▁tân	-2443
▁dược	-2444
▁cấm	-2445
▁khỉ	-2446
▁nảy	-2447
▁rét	-2448
▁san	-2449
▁Tiếp	-2450
▁ngắm	-2451
▁quát	-2452
ma	-2453
ộm	-2454
ann	-2455
▁Ben	-2456
▁hải	-2457
▁phì	-2458
▁sưu	-2459
▁thẻ	-2460
▁tuý	-2461
▁tắm	-2462
▁camera	-2463
ếch	-2464
▁tủ	-2465
▁196	-2466
▁Ros	-2467
▁oxy	-2468
▁liều	-2469
▁lường	-2470
▁CO	-2471
▁ưa	-2472
itter	-2473
▁cưới	-2474
▁muỗi	-2475
▁thịnh	-2476
▁Khoảng	-2477
iz	-2478
▁Bl	-2479
▁400	-2480
▁Bao	-2481
▁Bài	-2482
▁Bức	-2483
▁rãi	-2484
▁say	-2485
▁sơn	-2486
▁Iraq	-2487
▁chúa	-2488
▁khôn	-2489
▁lướt	-2490
▁tháp	-2491
ins	-2492
▁nở	-2493
▁Trời	-2494
▁nhẫn	-2495
▁thùng	-2496
▁trượt	-2497
▁150	-2498
▁kín	-2499
▁nan	-2500
▁Cộng	-2501
▁Paul	-2502
▁ngập	-2503
▁ngốc	-2504
▁nhắm	-2505
▁thua	-2506
▁thám	-2507
▁trục	-2508
▁Thiên	-2509
▁thỉnh	-2510
DP	-2511
▁Be	-2512
▁May	-2513
▁bốt	-2514
▁nốt	-2515
▁pha	-2516
▁phú	-2517
▁châm	-2518
▁feet	-2519
▁giam	-2520
▁nàng	-2521
▁thính	-2522
▁tướng	-2523
▁GDP	-2524
▁dám	-2525
▁xóm	-2526
▁quãng	-2527
▁Bố	-2528
▁cừ	-2529
▁dắt	-2530
▁Viện	-2531
▁khớp	-2532
▁Twitter	-2533
▁sl	-2534
▁Gre	-2535
▁cậy	-2536
▁cuộn	-2537
▁nắng	-2538
▁phái	-2539
▁sung	-2540
▁thiệt	-2541
SA	-2542
by	-2543
ướp	-2544
▁bơ	-2545
▁Hơn	-2546
▁rau	-2547
▁toả	-2548
▁lông	-2549
▁phạt	-2550
▁tháo	-2551
▁gấu	-2552
▁hầm	-2553
▁mạn	-2554
▁trà	-2555
▁Wash	-2556
▁bong	-2557
▁nhãn	-2558
ony	-2559
ood	-2560
▁Ab	-2561
▁Oh	-2562
▁nọ	-2563
▁vở	-2564
▁Ôi	-2565
▁Ang	-2566
▁Bos	-2567
▁Tin	-2568
▁dãy	-2569
▁khơi	-2570
▁đuôi	-2571
▁Thông	-2572
▁cưỡng	-2573
▁tuyển	-2574
olf	-2575
ver	-2576
▁Hệ	-2577
▁Ein	-2578
▁Ngo	-2579
▁Bang	-2580
▁Bình	-2581
▁Thành	-2582
▁Tương	-2583
▁chước	-2584
▁e	-2585
ana	-2586
▁lò	-2587
▁Chủ	-2588
▁Nig	-2589
▁Này	-2590
▁You	-2591
▁bớt	-2592
▁lát	-2593
▁nhở	-2594
▁thô	-2595
▁đâm	-2596
▁thuẫn	-2597
▁Einstein	-2598
ren	-2599
▁Sm	-2600
▁Tự	-2601
▁Thử	-2602
▁chở	-2603
▁hệt	-2604
▁chìa	-2605
▁muộn	-2606
▁ranh	-2607
▁thưa	-2608
▁Dương	-2609
he	-2610
▁log	-2611
▁lùi	-2612
▁mệt	-2613
▁chục	-2614
▁điêu	-2615
▁Tiếng	-2616
ne	-2617
oy	-2618
ael	-2619
ênh	-2620
▁Số	-2621
▁mỹ	-2622
▁hoả	-2623
▁hòn	-2624
▁lạm	-2625
▁Ngài	-2626
▁Chiến	-2627
▁slide	-2628
end	-2629
▁Hà	-2630
▁nợ	-2631
▁ồn	-2632
▁Hoả	-2633
▁Mục	-2634
▁Nha	-2635
▁Wil	-2636
▁bút	-2637
▁cac	-2638
▁vua	-2639
▁đồi	-2640
▁Stev	-2641
▁ngực	-2642
▁thôn	-2643
▁phẳng	-2644
xi	-2645
ort	-2646
ươn	-2647
▁bọ	-2648
▁sứ	-2649
▁Cập	-2650
▁Pet	-2651
▁cởi	-2652
▁múa	-2653
▁đới	-2654
▁gánh	-2655
▁khúc	-2656
▁trấn	-2657
▁Franc	-2658
▁Washington	-2659
za	-2660
ộp	-2661
▁MI	-2662
▁Bảo	-2663
▁kịp	-2664
▁mấu	-2665
▁sốc	-2666
▁Quan	-2667
▁George	-2668
▁carbon	-2669
ka	-2670
een	-2671
ier	-2672
▁rễ	-2673
▁mỏi	-2674
▁vải	-2675
▁Khoa	-2676
▁TEDx	-2677
▁rung	-2678
ald	-2679
ett	-2680
ike	-2681
ola	-2682
▁Cr	-2683
site	-2684
▁Jon	-2685
ander	-2686
▁Rich	-2687
▁Thom	-2688
▁hãng	-2689
▁khôi	-2690
▁Chiếc	-2691
▁duyệt	-2692
▁nghiện	-2693
▁Charles	-2694
up	-2695
are	-2696
▁Dự	-2697
▁Pr	-2698
▁Wik	-2699
▁cối	-2700
▁hưu	-2701
▁ráp	-2702
▁Hàng	-2703
▁Phil	-2704
▁thâm	-2705
▁ngoan	-2706
▁nghịch	-2707
▁Nigeria	-2708
▁website	-2709
▁internet	-2710
.5	-2711
30	-2712
▁1,	-2713
▁Hình	-2714
▁Loại	-2715
▁hồng	-2716
▁nhặt	-2717
▁khiếm	-2718
▁khẳng	-2719
▁lưỡng	-2720
▁a	-2721
inc	-2722
lex	-2723
▁Dar	-2724
▁Thổ	-2725
▁Tốt	-2726
▁lật	-2727
▁mâu	-2728
▁tha	-2729
▁vây	-2730
▁địch	-2731
▁cuồng	-2732
▁nhiếp	-2733
én	-2734
osh	-2735
▁El	-2736
▁La	-2737
▁Ma	-2738
▁đố	-2739
▁Bro	-2740
▁MIT	-2741
▁gan	-2742
▁hẹp	-2743
▁sắt	-2744
▁2008	-2745
▁Bệnh	-2746
▁Nghe	-2747
▁Toàn	-2748
▁khói	-2749
▁phím	-2750
▁Thượng	-2751
▁cacbon	-2752
ast	-2753
ube	-2754
▁35	-2755
▁Na	-2756
▁Ne	-2757
▁Rõ	-2758
▁Pak	-2759
▁Quá	-2760
▁rắn	-2761
▁1000	-2762
▁Adam	-2763
▁Hiệp	-2764
▁vươn	-2765
▁Michael	-2766
iel	-2767
▁45	-2768
▁Di	-2769
▁Los	-2770
▁Sch	-2771
▁đàm	-2772
▁đáo	-2773
▁Tình	-2774
▁mảng	-2775
▁khuyết	-2776
▁Francis	-2777
PS	-2778
ok	-2779
pe	-2780
yn	-2781
ela	-2782
▁đẻ	-2783
▁cừu	-2784
▁gối	-2785
▁non	-2786
▁rửa	-2787
▁str	-2788
▁long	-2789
▁đoan	-2790
▁khoái	-2791
òm	-2792
ằn	-2793
▁He	-2794
edia	-2795
ight	-2796
▁Tên	-2797
▁cạn	-2798
▁tần	-2799
▁Thomas	-2800
▁stress	-2801
▁Pakistan	-2802
ica	-2803
▁Re	-2804
olly	-2805
ward	-2806
▁Bắt	-2807
▁dâm	-2808
▁dạo	-2809
▁dải	-2810
▁dẻo	-2811
▁mồi	-2812
▁sạn	-2813
▁chín	-2814
▁cướp	-2815
▁manh	-2816
▁màng	-2817
▁Ju	-2818
ling	-2819
▁Bên	-2820
▁Cha	-2821
▁Máy	-2822
▁lận	-2823
▁vẹn	-2824
▁đạn	-2825
▁Ngân	-2826
▁hack	-2827
▁lệch	-2828
▁treo	-2829
▁trân	-2830
▁Thiết	-2831
20	-2832
ve	-2833
eph	-2834
ụng	-2835
▁75	-2836
▁PM	-2837
▁Der	-2838
▁Dân	-2839
▁Fre	-2840
▁bơm	-2841
▁cắm	-2842
▁lợn	-2843
▁đạc	-2844
▁Tiến	-2845
▁Richard	-2846
apt	-2847
▁Ob	-2848
▁Wh	-2849
▁lờ	-2850
▁cắp	-2851
▁đền	-2852
▁Mark	-2853
▁tông	-2854
▁vĩnh	-2855
▁Haiti	-2856
▁quyên	-2857
ami	-2858
ice	-2859
lan	-2860
▁Je	-2861
▁de	-2862
ound	-2863
▁GPS	-2864
▁Hàn	-2865
▁bắp	-2866
▁bọc	-2867
▁ham	-2868
▁kẹo	-2869
▁kẹt	-2870
▁2010	-2871
▁buýt	-2872
▁gene	-2873
▁kiệt	-2874
▁tuân	-2875
▁Frank	-2876
▁khiêu	-2877
▁nhàng	-2878
▁khuynh	-2879
ld	-2880
ox	-2881
com	-2882
lie	-2883
lip	-2884
lor	-2885
▁At	-2886
▁Gr	-2887
▁Kể	-2888
▁NA	-2889
▁co	-2890
▁sh	-2891
▁Nơi	-2892
▁Tom	-2893
▁bia	-2894
▁dọn	-2895
▁lấp	-2896
▁mòn	-2897
▁chúc	-2898
▁nhầm	-2899
▁huyền	-2900
ark	-2901
ile	-2902
▁23	-2903
▁nề	-2904
▁đỗ	-2905
▁Cam	-2906
▁Phụ	-2907
▁mic	-2908
▁tựa	-2909
▁đai	-2910
ation	-2911
ester	-2912
▁giãn	-2913
▁thắc	-2914
▁Robert	-2915
acc	-2916
▁ga	-2917
▁hã	-2918
▁mồ	-2919
▁vé	-2920
▁Chà	-2921
▁rập	-2922
▁trú	-2923
▁vay	-2924
▁xám	-2925
▁lũng	-2926
▁mười	-2927
ft	-2928
org	-2929
rid	-2930
rút	-2931
win	-2932
ịnh	-2933
▁dở	-2934
▁vỗ	-2935
▁amp	-2936
▁cựu	-2937
▁mọc	-2938
▁thổ	-2939
▁Mình	-2940
▁chăn	-2941
▁mỏng	-2942
▁thép	-2943
▁Angel	-2944
▁cương	-2945
▁thằng	-2946
RI	-2947
▁Đa	-2948
▁Lạp	-2949
▁Mal	-2950
▁dốc	-2951
▁nêu	-2952
▁đợt	-2953
▁Nước	-2954
▁Tổng	-2955
▁khéo	-2956
▁ngừa	-2957
▁James	-2958
▁Tuyệt	-2959
▁vượng	-2960
vi	-2961
▁bá	-2962
▁Hải	-2963
▁hôi	-2964
▁nát	-2965
▁sôi	-2966
▁Harv	-2967
▁dũng	-2968
▁lượt	-2969
▁Nghiên	-2970
ity	-2971
old	-2972
▁Cl	-2973
▁bù	-2974
▁mỉ	-2975
▁rẽ	-2976
▁st	-2977
amin	-2978
▁chợ	-2979
▁qui	-2980
▁xôi	-2981
▁Điểm	-2982
▁Đồng	-2983
▁thoái	-2984
ũi	-2985
▁ồ	-2986
ney	-2987
ờng	-2988
hone	-2989
▁194	-2990
▁mày	-2991
▁nản	-2992
▁Scot	-2993
▁bỗng	-2994
▁hoài	-2995
▁hung	-2996
▁hạch	-2997
▁phác	-2998
ago	-2999
ner	-3000
ates	-3001
▁Gia	-3002
▁Quý	-3003
▁chả	-3004
▁dội	-3005
▁nén	-3006
▁rad	-3007
▁2007	-3008
▁Sinh	-3009
▁Talk	-3010
▁bách	-3011
▁thầm	-3012
▁trật	-3013
▁vang	-3014
pt	-3015
ẳm	-3016
ple	-3017
▁99	-3018
▁võ	-3019
▁đẽ	-3020
▁Bác	-3021
▁Sam	-3022
▁bấy	-3023
▁gác	-3024
▁men	-3025
▁van	-3026
▁xíu	-3027
▁chua	-3028
▁tiễn	-3029
▁trừu	-3030
▁xăng	-3031
▁Carol	-3032
▁Phương	-3033
▁nghiệt	-3034
uck	-3035
▁Or	-3036
▁Se	-3037
▁nụ	-3038
▁Gab	-3039
▁Ind	-3040
▁bìa	-3041
▁hụt	-3042
▁pho	-3043
▁Alex	-3044
▁cổng	-3045
▁muối	-3046
▁Obama	-3047
▁iPhone	-3048
me	-3049
low	-3050
▁lơ	-3051
▁đà	-3052
berg	-3053
▁lắc	-3054
▁ruồi	-3055
▁thẳm	-3056
▁xích	-3057
ipedia	-3058
▁Smith	-3059
▁Steve	-3060
▁Thánh	-3061
ủa	-3062
ush	-3063
van	-3064
▁ốc	-3065
burg	-3066
imer	-3067
▁Nob	-3068
▁Qua	-3069
▁Trẻ	-3070
▁hóc	-3071
▁lúa	-3072
▁súc	-3073
▁vụn	-3074
▁NASA	-3075
▁giặt	-3076
▁mộng	-3077
▁soạn	-3078
▁trộm	-3079
▁Trans	-3080
cel	-3081
ern	-3082
ish	-3083
iss	-3084
umb	-3085
▁of	-3086
▁rũ	-3087
▁Đi	-3088
▁ốm	-3089
atch	-3090
▁Rom	-3091
▁bướ	-3092
▁gũi	-3093
▁the	-3094
▁tím	-3095
▁Chào	-3096
▁chợt	-3097
▁mươi	-3098
▁xướng	-3099
▁xưởng	-3100
▁Wikipedia	-3101
ez	-3102
eth	-3103
per	-3104
toc	-3105
▁22	-3106
▁Co	-3107
▁al	-3108
bert	-3109
thal	-3110
▁---	-3111
▁Big	-3112
▁Hoà	-3113
▁Man	-3114
▁Sah	-3115
▁chẽ	-3116
▁hét	-3117
▁độn	-3118
▁ếch	-3119
▁mượn	-3120
▁ngẫm	-3121
▁Tưởng	-3122
▁tráng	-3123
▁Martin	-3124
▁khoáng	-3125
▁Harvard	-3126
ny	-3127
ros	-3128
▁dỗ	-3129
▁đệ	-3130
▁Chị	-3131
▁Lấy	-3132
▁bẩn	-3133
▁lân	-3134
▁ván	-3135
▁cược	-3136
▁cống	-3137
▁nhào	-3138
▁quặc	-3139
▁trán	-3140
▁Derek	-3141
▁Nghĩa	-3142
▁Paris	-3143
▁quyến	-3144
▁Darwin	-3145
▁nhường	-3146
eh	-3147
ary	-3148
oth	-3149
▁hò	-3150
▁li	-3151
icon	-3152
▁Giá	-3153
▁bám	-3154
▁bấm	-3155
▁gìn	-3156
▁lều	-3157
▁mến	-3158
▁2009	-3159
▁lánh	-3160
▁nhạt	-3161
▁nồng	-3162
▁Điện	-3163
▁Giọng	-3164
▁Nobel	-3165
▁hacker	-3166
▁Angeles	-3167
▁Francisco	-3168
mp	-3169
ali	-3170
eah	-3171
ota	-3172
▁36	-3173
▁sô	-3174
▁xỉ	-3175
▁ôm	-3176
oran	-3177
▁Mad	-3178
▁Tor	-3179
▁sáo	-3180
▁sắm	-3181
attan	-3182
tocin	-3183
▁hiếp	-3184
▁mãnh	-3185
▁ruột	-3186
▁rỗng	-3187
,5	-3188
PA	-3189
ck	-3190
ix	-3191
dro	-3192
ink	-3193
▁mổ	-3194
▁nô	-3195
▁oh	-3196
azon	-3197
ones	-3198
▁Cop	-3199
▁Cần	-3200
▁Web	-3201
▁cài	-3202
▁luỹ	-3203
▁Đấy	-3204
▁Loài	-3205
▁chôn	-3206
▁lùng	-3207
▁nhện	-3208
▁phun	-3209
▁thấm	-3210
▁Green	-3211
▁logic	-3212
▁radio	-3213
▁Nguyên	-3214
ca	-3215
igg	-3216
udio	-3217
▁Jer	-3218
▁Quỹ	-3219
aptop	-3220
▁2005	-3221
▁Cháu	-3222
▁giọt	-3223
▁lồng	-3224
▁vạch	-3225
▁xuân	-3226
▁thung	-3227
▁Sahara	-3228
ace	-3229
cri	-3230
rop	-3231
tor	-3232
▁Gu	-3233
▁cọ	-3234
▁lỡ	-3235
▁rã	-3236
▁vờ	-3237
▁Leg	-3238
▁Nhĩ	-3239
▁Tal	-3240
▁Wor	-3241
▁hãm	-3242
▁sét	-3243
▁xăm	-3244
▁Manh	-3245
▁chọc	-3246
▁inch	-3247
▁Ngoài	-3248
▁Peter	-3249
▁huynh	-3250
▁triệt	-3251
▁Amazon	-3252
▁Christ	-3253
▁thượng	-3254
ef	-3255
tô	-3256
ue	-3257
yr	-3258
age	-3259
azz	-3260
oph	-3261
▁27	-3262
▁Sĩ	-3263
▁Lib	-3264
▁bóc	-3265
▁léo	-3266
▁run	-3267
▁vòi	-3268
cript	-3269
raham	-3270
▁Giải	-3271
▁Stan	-3272
▁lăng	-3273
▁móng	-3274
▁tivi	-3275
heimer	-3276
▁Manhattan	-3277
▁Rw	-3278
▁tê	-3279
▁uy	-3280
▁đc	-3281
▁ẩm	-3282
wood	-3283
▁Alz	-3284
▁Sức	-3285
▁quạ	-3286
▁tựu	-3287
▁Eric	-3288
▁vịnh	-3289
ilicon	-3290
▁oxytocin	-3291
▁Alzheimer	-3292
ss	-3293
ts	-3294
uk	-3295
ala	-3296
ens	-3297
imb	-3298
▁Ah	-3299
▁En	-3300
▁Tư	-3301
▁bê	-3302
▁mỳ	-3303
▁ái	-3304
▁Đo	-3305
line	-3306
▁Haw	-3307
▁Tác	-3308
▁Ven	-3309
▁Wal	-3310
▁kìa	-3311
▁tuỷ	-3312
▁vứt	-3313
icago	-3314
▁Jack	-3315
▁chằm	-3316
▁chớp	-3317
▁Đảng	-3318
▁khiêm	-3319
▁chuông	-3320
▁Chicago	-3321
SD	-3322
to	-3323
mer	-3324
oca	-3325
uss	-3326
▁26	-3327
▁Cá	-3328
▁II	-3329
▁km	-3330
▁xà	-3331
▁250	-3332
▁600	-3333
▁Sub	-3334
▁bốc	-3335
▁nếp	-3336
▁đóm	-3337
oster	-3338
▁1990	-3339
▁Bước	-3340
▁Thưa	-3341
▁lưỡi	-3342
▁ngẩn	-3343
▁võng	-3344
▁luồng	-3345
▁nhiễu	-3346
▁Đường	-3347
▁Boston	-3348
▁Rwanda	-3349
▁Thường	-3350
▁laptop	-3351
mm	-3352
air	-3353
iễu	-3354
tit	-3355
xin	-3356
▁Ac	-3357
▁MT	-3358
rian	-3359
▁000	-3360
▁Joe	-3361
▁Văn	-3362
▁bồi	-3363
▁dịp	-3364
▁lui	-3365
▁ron	-3366
▁Chưa	-3367
▁Luật	-3368
▁gạch	-3369
▁thắt	-3370
▁đoạt	-3371
▁hoành	-3372
▁kiêng	-3373
▁ngưng	-3374
▁sọ	-3375
▁ấu	-3376
▁Gal	-3377
▁Lat	-3378
▁Sim	-3379
▁Thì	-3380
▁Van	-3381
▁Xem	-3382
▁gậy	-3383
▁ngớ	-3384
▁Đơn	-3385
▁đúc	-3386
▁Coca	-3387
▁Giai	-3388
▁Higg	-3389
▁Mont	-3390
▁Thêm	-3391
▁cent	-3392
▁nano	-3393
▁nhóc	-3394
▁vacc	-3395
▁đuối	-3396
▁đôla	-3397
▁khoăn	-3398
ger	-3399
our	-3400
rew	-3401
ure	-3402
ust	-3403
ửng	-3404
▁2.	-3405
▁bể	-3406
▁mỡ	-3407
▁rỉ	-3408
▁xé	-3409
liam	-3410
▁Del	-3411
▁Jim	-3412
▁MRI	-3413
▁Per	-3414
▁Trở	-3415
▁hít	-3416
▁hận	-3417
▁Đứa	-3418
▁đậm	-3419
athan	-3420
ridge	-3421
▁Hans	-3422
▁Phát	-3423
▁golf	-3424
▁hoãn	-3425
▁Apple	-3426
▁Gabby	-3427
▁hydro	-3428
▁William	-3429
ât	-3430
ẽn	-3431
ida	-3432
▁95	-3433
▁CE	-3434
▁Tu	-3435
▁vả	-3436
▁Hen	-3437
▁Hợp	-3438
▁Jan	-3439
▁Vật	-3440
▁ghê	-3441
▁nhủ	-3442
▁nàn	-3443
▁Hành	-3444
▁Quay	-3445
▁hổng	-3446
▁ngột	-3447
▁tiệm	-3448
▁Động	-3449
titles	-3450
▁Gates	-3451
▁Subtitles	-3452
▁Transcript	-3453
ire	-3454
len	-3455
▁Ox	-3456
▁Sw	-3457
▁on	-3458
emen	-3459
iano	-3460
lick	-3461
uyến	-3462
▁Bab	-3463
▁Chú	-3464
▁Khá	-3465
▁Mic	-3466
▁War	-3467
▁băn	-3468
▁bầy	-3469
▁gom	-3470
▁gãy	-3471
▁lam	-3472
▁quỷ	-3473
▁vội	-3474
igami	-3475
▁Brow	-3476
▁Park	-3477
▁Việt	-3478
▁canh	-3479
▁giật	-3480
▁điền	-3481
▁Phòng	-3482
▁Times	-3483
▁nghẽn	-3484
▁nhánh	-3485
▁chuyền	-3486
esh	-3487
▁32	-3488
▁195	-3489
▁Bon	-3490
▁Mah	-3491
▁Màu	-3492
▁Nhờ	-3493
▁bẩm	-3494
▁vất	-3495
▁2004	-3496
▁2006	-3497
▁Okay	-3498
▁gien	-3499
▁giáp	-3500
▁hoan	-3501
▁ương	-3502
▁Koran	-3503
▁micro	-3504
ini	-3505
▁65	-3506
▁Sử	-3507
▁bẻ	-3508
▁bồ	-3509
▁or	-3510
lian	-3511
ster	-3512
▁Bur	-3513
▁Giả	-3514
▁Hắn	-3515
▁Nan	-3516
▁Nor	-3517
▁Pat	-3518
▁Tas	-3519
▁Tes	-3520
▁Wat	-3521
▁dại	-3522
▁dệt	-3523
▁mầm	-3524
▁phô	-3525
▁súp	-3526
▁đốm	-3527
▁Flor	-3528
▁chày	-3529
▁trúng	-3530
▁Palest	-3531
▁thiêng	-3532
di	-3533
car	-3534
enz	-3535
lar	-3536
oft	-3537
▁28	-3538
▁xứ	-3539
▁ào	-3540
▁Rio	-3541
▁lột	-3542
▁ngư	-3543
▁nhị	-3544
▁nón	-3545
▁rạp	-3546
▁vòm	-3547
▁vặt	-3548
▁Đặc	-3549
inson	-3550
▁1960	-3551
▁1970	-3552
▁Hoàn	-3553
▁Star	-3554
▁Tony	-3555
▁hông	-3556
▁phốt	-3557
▁tùng	-3558
▁xoắn	-3559
▁xách	-3560
▁đụng	-3561
▁phiêu	-3562
▁sướng	-3563
ale	-3564
uel	-3565
▁My	-3566
▁Su	-3567
alia	-3568
ongo	-3569
ther	-3570
▁Kim	-3571
▁Mac	-3572
▁Nền	-3573
▁Vẫn	-3574
▁ghé	-3575
▁que	-3576
▁rìa	-3577
▁rộn	-3578
▁uốn	-3579
▁Đạo	-3580
▁2003	-3581
▁2011	-3582
▁Gand	-3583
▁King	-3584
▁Quân	-3585
▁Tính	-3586
▁tịch	-3587
▁vương	-3588
▁Howard	-3589
der	-3590
eal	-3591
omb	-3592
▁De	-3593
▁Me	-3594
▁kề	-3595
▁lọ	-3596
izza	-3597
▁120	-3598
▁Don	-3599
▁Não	-3600
▁cáp	-3601
▁dập	-3602
▁mốc	-3603
▁ngụ	-3604
▁tôm	-3605
erson	-3606
▁Camb	-3607
▁biếm	-3608
▁clip	-3609
▁cảng	-3610
▁khan	-3611
▁khen	-3612
▁nhấp	-3613
▁thắn	-3614
▁thốt	-3615
▁Henry	-3616
▁Yemen	-3617
▁khùng	-3618
▁origami	-3619
▁vaccine	-3620
we	-3621
int	-3622
ium	-3623
▁Nữ	-3624
▁ax	-3625
▁el	-3626
▁kẽ	-3627
▁kệ	-3628
▁ủi	-3629
Tube	-3630
outh	-3631
▁Lad	-3632
▁Tan	-3633
▁búa	-3634
▁bực	-3635
▁kem	-3636
▁kẹp	-3637
▁lau	-3638
▁đệm	-3639
▁Phật	-3640
▁Sing	-3641
▁chíp	-3642
▁chóc	-3643
▁củng	-3644
▁nhàm	-3645
▁sửng	-3646
▁Congo	-3647
▁World	-3648
▁khoai	-3649
▁piano	-3650
▁Tasman	-3651
▁thoáng	-3652
▁YouTube	-3653
dy	-3654
▁CA	-3655
▁Cy	-3656
▁mớ	-3657
▁rỡ	-3658
hana	-3659
mpic	-3660
▁Jos	-3661
▁Kar	-3662
▁Mat	-3663
▁Mùa	-3664
▁Sáu	-3665
▁dồn	-3666
▁gạt	-3667
▁hái	-3668
▁mép	-3669
▁phe	-3670
▁tam	-3671
▁tăm	-3672
▁vịt	-3673
▁xộn	-3674
ganda	-3675
▁....	-3676
▁3000	-3677
▁Bush	-3678
▁Ford	-3679
▁huýt	-3680
▁phơi	-3681
▁sườn	-3682
▁thơm	-3683
▁trùm	-3684
▁đinh	-3685
▁Arist	-3686
▁Brian	-3687
▁Ghana	-3688
▁Micros	-3689
▁choáng	-3690
▁chướng	-3691
▁studio	-3692
af	-3693
go	-3694
lu	-3695
na	-3696
ild	-3697
itz	-3698
lob	-3699
lyn	-3700
ris	-3701
▁FG	-3702
▁Kì	-3703
▁Pl	-3704
▁Vô	-3705
▁Đỏ	-3706
Cola	-3707
arah	-3708
iban	-3709
ille	-3710
yria	-3711
▁Gen	-3712
▁Her	-3713
▁LED	-3714
▁Toà	-3715
▁Tạo	-3716
▁dai	-3717
▁dịu	-3718
▁gai	-3719
▁môt	-3720
▁rỗi	-3721
▁đom	-3722
▁Ngôi	-3723
▁Rằng	-3724
▁bướm	-3725
▁ngục	-3726
▁nhét	-3727
▁trèo	-3728
▁tạng	-3729
▁tống	-3730
▁Higgs	-3731
▁Syria	-3732
▁Tháng	-3733
▁thiền	-3734
▁triều	-3735
▁10,000	-3736
▁Oxford	-3737
▁Aristot	-3738
cô	-3739
ía	-3740
ẹo	-3741
ịt	-3742
ect	-3743
eda	-3744
lad	-3745
unt	-3746
▁33	-3747
▁85	-3748
▁Bu	-3749
▁Mu	-3750
▁NL	-3751
▁am	-3752
▁sc	-3753
▁âu	-3754
▁Khu	-3755
▁Quy	-3756
▁Tài	-3757
▁hàn	-3758
▁mưu	-3759
▁ngừ	-3760
▁râu	-3761
▁rèn	-3762
▁1950	-3763
▁Lego	-3764
▁Wall	-3765
▁gieo	-3766
▁khẩn	-3767
▁tang	-3768
▁trọn	-3769
▁túng	-3770
▁phiến	-3771
▁Aristotle	-3772
▁Cambridge	-3773
▁Microsoft	-3774
kg	-3775
ớc	-3776
ati	-3777
nes	-3778
ten	-3779
▁Vũ	-3780
▁dê	-3781
etro	-3782
itch	-3783
ower	-3784
ropy	-3785
▁Amy	-3786
▁bón	-3787
▁dol	-3788
▁hâm	-3789
▁trễ	-3790
▁tẩy	-3791
▁vần	-3792
▁đục	-3793
▁Giới	-3794
▁Josh	-3795
▁Mand	-3796
▁hưng	-3797
▁Brook	-3798
ba	-3799
oh	-3800
ze	-3801
úm	-3802
ếm	-3803
ịa	-3804
ốp	-3805
ụi	-3806
ant	-3807
ari	-3808
ấng	-3809
▁Go	-3810
▁Os	-3811
▁SW	-3812
▁Tế	-3813
▁ac	-3814
▁hé	-3815
ania	-3816
▁Bob	-3817
▁Lak	-3818
▁Mel	-3819
▁Oly	-3820
▁Sal	-3821
▁Ser	-3822
▁Vir	-3823
▁bộc	-3824
▁cóc	-3825
▁cồn	-3826
▁dơi	-3827
▁dẹp	-3828
▁nhi	-3829
▁vạn	-3830
▁vọt	-3831
▁xay	-3832
▁Địa	-3833
▁Đột	-3834
▁đòn	-3835
▁2001	-3836
▁Rock	-3837
▁banh	-3838
▁show	-3839
▁Hoàng	-3840
▁Ngược	-3841
▁buồng	-3842
▁chiêm	-3843
▁phồng	-3844
▁pizza	-3845
▁trừng	-3846
▁10.000	-3847
▁Lester	-3848
▁Neander	-3849
▁Taliban	-3850
▁Stanford	-3851
▁Neanderthal	-3852
-1	-3853
oot	-3854
▁0.	-3855
▁55	-3856
▁Xô	-3857
▁lô	-3858
▁vớ	-3859
▁đè	-3860
ardo	-3861
aser	-3862
exas	-3863
thur	-3864
ulin	-3865
▁Bay	-3866
▁Pan	-3867
▁bồn	-3868
▁ent	-3869
▁nha	-3870
▁rốt	-3871
▁ser	-3872
▁vẩn	-3873
▁ôtô	-3874
▁ướt	-3875
right	-3876
▁Jenn	-3877
▁Shak	-3878
▁Sáng	-3879
▁Yeah	-3880
▁chay	-3881
▁ngợi	-3882
▁ngửi	-3883
▁pháo	-3884
▁quad	-3885
▁vắng	-3886
▁Texas	-3887
▁pound	-3888
▁Abraham	-3889
▁Charlie	-3890
▁Florida	-3891
▁nghiêng	-3892
ora	-3893
own	-3894
ượm	-3895
▁CP	-3896
▁Vi	-3897
▁ấp	-3898
agen	-3899
▁Bol	-3900
▁Bốn	-3901
▁Eli	-3902
▁Lar	-3903
▁Lại	-3904
▁Nel	-3905
▁Quả	-3906
▁Ray	-3907
▁Tur	-3908
▁bát	-3909
▁bưu	-3910
▁bẫy	-3911
▁chì	-3912
▁dưa	-3913
▁kìm	-3914
▁nâu	-3915
▁tao	-3916
▁xảo	-3917
▁1980	-3918
▁Bron	-3919
▁Jeff	-3920
▁bỏng	-3921
▁ngây	-3922
▁nuốt	-3923
▁thèm	-3924
▁thạo	-3925
▁Holly	-3926
▁Chương	-3927
▁Daniel	-3928
▁online	-3929
▁entropy	-3930
AR	-3931
de	-3932
fe	-3933
mo	-3934
ìu	-3935
ole	-3936
ory	-3937
pam	-3938
▁Da	-3939
▁xế	-3940
kins	-3941
▁Ari	-3942
▁bẩy	-3943
▁bến	-3944
▁cay	-3945
▁ins	-3946
▁nạp	-3947
▁phế	-3948
▁rực	-3949
▁tảo	-3950
▁đắm	-3951
orden	-3952
▁Mạch	-3953
▁Vịnh	-3954
▁Wolf	-3955
▁Yout	-3956
▁chùm	-3957
▁dâng	-3958
▁quận	-3959
▁then	-3960
▁xoáy	-3961
▁Giáng	-3962
▁Trông	-3963
▁chiên	-3964
▁ngươi	-3965
▁virút	-3966
▁Đương	-3967
▁Philip	-3968
▁Olympic	-3969
ha	-3970
se	-3971
agh	-3972
ero	-3973
mon	-3974
rap	-3975
red	-3976
rog	-3977
yan	-3978
▁37	-3979
▁Ky	-3980
▁cộ	-3981
▁uỷ	-3982
▁Đế	-3983
▁700	-3984
▁Kev	-3985
▁Lau	-3986
▁Lớn	-3987
▁Lời	-3988
▁Mil	-3989
▁Mor	-3990
▁Tam	-3991
▁Tay	-3992
▁Tit	-3993
▁Tối	-3994
▁gay	-3995
▁lay	-3996
▁nhã	-3997
▁nín	-3998
▁soi	-3999
▁2050	-4000
▁Lịch	-4001
▁Nghĩ	-4002
▁Ngôn	-4003
▁Nhóm	-4004
▁Stew	-4005
▁Thôi	-4006
▁diều	-4007
▁luân	-4008
▁nhồi	-4009
▁nhộn	-4010
▁thuỳ	-4011
▁viêm	-4012
▁Đoạn	-4013
▁Brown	-4014
▁Cyrus	-4015
▁Quyền	-4016
▁South	-4017
▁Vương	-4018
▁khiếu	-4019
▁nhuộm	-4020
▁thiếp	-4021
▁dollar	-4022
▁Rosling	-4023
▁Youtube	-4024
-2	-4025
BM	-4026
ih	-4027
ata	-4028
enh	-4029
eop	-4030
ere	-4031
gar	-4032
ino	-4033
iêm	-4034
▁29	-4035
▁31	-4036
▁Cụ	-4037
▁DV	-4038
▁Si	-4039
▁xá	-4040
▁xô	-4041
▁xả	-4042
chia	-4043
ever	-4044
ison	-4045
▁191	-4046
▁Cap	-4047
▁For	-4048
▁Jac	-4049
▁Mos	-4050
▁Ron	-4051
▁Tìm	-4052
▁Wow	-4053
▁gộp	-4054
▁hân	-4055
▁lậu	-4056
▁lội	-4057
▁xen	-4058
▁Kiến	-4059
▁Long	-4060
▁Mill	-4061
▁Toán	-4062
▁bổng	-4063
▁sùng	-4064
▁thắp	-4065
▁trội	-4066
▁Đáng	-4067
▁Latin	-4068
▁khuất	-4069
▁khăng	-4070
▁trinh	-4071
▁Andrew	-4072
▁Norden	-4073
▁Watson	-4074
▁nghiền	-4075
TC	-4076
ke	-4077
den	-4078
oll	-4079
ona	-4080
rut	-4081
▁Av	-4082
▁Hu	-4083
▁Ro	-4084
▁bế	-4085
▁dỡ	-4086
▁lê	-4087
▁tw	-4088
▁ân	-4089
eton	-4090
reet	-4091
tron	-4092
▁800	-4093
▁Air	-4094
▁CEO	-4095
▁Cầu	-4096
▁Dis	-4097
▁Ear	-4098
▁Eur	-4099
▁Khả	-4100
▁Mur	-4101
▁Ted	-4102
▁cai	-4103
▁cuả	-4104
▁gập	-4105
▁keo	-4106
▁mar	-4107
▁mọt	-4108
▁ngô	-4109
▁ngộ	-4110
▁ray	-4111
▁ria	-4112
▁sói	-4113
▁sếp	-4114
▁Đan	-4115
ephen	-4116
eting	-4117
lobal	-4118
▁Chất	-4119
▁Gore	-4120
▁Hill	-4121
▁Kính	-4122
▁Mike	-4123
▁Tiền	-4124
▁chip	-4125
▁lượm	-4126
▁nhăn	-4127
▁trêu	-4128
etroit	-4129
▁Thống	-4130
▁khoán	-4131
▁Arthur	-4132
▁Singap	-4133
▁Detroit	-4134
▁Mandela	-4135
▁Stephen	-4136
▁insulin	-4137
▁Scotland	-4138
▁Palestine	-4139
EC	-4140
yd	-4141
gin	-4142
idi	-4143
mad	-4144
oop	-4145
▁As	-4146
▁CD	-4147
▁Ki	-4148
▁No	-4149
▁hả	-4150
▁ne	-4151
▁rổ	-4152
ence	-4153
espe	-4154
iana	-4155
▁Bal	-4156
▁Bọn	-4157
▁Mới	-4158
▁Som	-4159
▁Vic	-4160
▁bóp	-4161
▁bới	-4162
▁cẩu	-4163
▁giế	-4164
▁hán	-4165
▁hẻo	-4166
▁khe	-4167
▁nit	-4168
▁rải	-4169
▁vẫy	-4170
▁Đưa	-4171
ansas	-4172
burgh	-4173
▁Gold	-4174
▁Kiểu	-4175
▁Matt	-4176
▁dang	-4177
▁khâu	-4178
▁khép	-4179
▁khốn	-4180
▁mark	-4181
▁sảnh	-4182
onesia	-4183
▁Black	-4184
▁Bronx	-4185
▁Ngoại	-4186
▁laser	-4187
▁Street	-4188
▁trương	-4189
▁Shakespe	-4190
▁Hollywood	-4191
▁Indonesia	-4192
▁Singapore	-4193
BC	-4194
gh	-4195
eep	-4196
ies	-4197
nia	-4198
oto	-4199
via	-4200
▁Cố	-4201
▁Ec	-4202
▁Gh	-4203
▁Ir	-4204
▁Xã	-4205
▁Yo	-4206
▁tơ	-4207
evil	-4208
▁DVD	-4209
▁Fer	-4210
▁Lee	-4211
▁Lew	-4212
▁bùn	-4213
▁mil	-4214
▁nhí	-4215
▁nãy	-4216
▁sỏi	-4217
▁thề	-4218
▁tua	-4219
▁tụt	-4220
▁vàn	-4221
▁vặn	-4222
▁xài	-4223
▁Ever	-4224
▁Icel	-4225
▁chốn	-4226
▁khốc	-4227
▁lượn	-4228
▁ngơi	-4229
▁phôi	-4230
▁đàng	-4231
▁Laden	-4232
▁Nguồn	-4233
▁Robot	-4234
▁chặng	-4235
▁giếng	-4236
▁Joseph	-4237
▁Nelson	-4238
▁khoang	-4239
▁Iceland	-4240
BI	-4241
MA	-4242
NC	-4243
bốt	-4244
dam	-4245
eck	-4246
olm	-4247
pha	-4248
que	-4249
▁46	-4250
▁Es	-4251
▁Kn	-4252
▁mi	-4253
▁rò	-4254
▁xi	-4255
▁xơ	-4256
▁Đô	-4257
atar	-4258
ilet	-4259
▁Bảy	-4260
▁Den	-4261
▁Mag	-4262
▁Pop	-4263
▁Pro	-4264
▁Riv	-4265
▁Thí	-4266
▁Thú	-4267
▁Tâm	-4268
▁bội	-4269
▁hàu	-4270
▁loa	-4271
▁lứa	-4272
▁mẹo	-4273
▁nắp	-4274
▁nếm	-4275
▁đãi	-4276
▁đồn	-4277
▁2002	-4278
▁Berk	-4279
▁Cảnh	-4280
▁Dưới	-4281
▁Nhạc	-4282
▁Sand	-4283
▁bênh	-4284
▁hăng	-4285
▁logo	-4286
▁lách	-4287
▁lửng	-4288
▁muôn	-4289
▁ngào	-4290
▁ngắt	-4291
▁nuối	-4292
▁quạt	-4293
▁rặng	-4294
▁vách	-4295
▁Định	-4296
▁đọng	-4297
ealand	-4298
▁Dường	-4299
▁khiết	-4300
▁liêng	-4301
▁nhược	-4302
▁tweet	-4303
▁Albert	-4304
▁Truyền	-4305
▁Victor	-4306
▁Montana	-4307
▁Carolina	-4308
▁marketing	-4309
▁Shakespeare	-4310
ỉa	-4311
ear	-4312
mar	-4313
▁48	-4314
▁ED	-4315
▁Mô	-4316
▁nạ	-4317
aron	-4318
eron	-4319
ollo	-4320
oton	-4321
raph	-4322
▁Eth	-4323
▁Ham	-4324
▁Han	-4325
▁IBM	-4326
▁Jay	-4327
▁McC	-4328
▁Mấy	-4329
▁Mối	-4330
▁Mộc	-4331
▁Suy	-4332
▁Ter	-4333
▁bon	-4334
▁dâu	-4335
▁dời	-4336
▁kil	-4337
▁len	-4338
▁lấn	-4339
▁rệt	-4340
▁toa	-4341
▁tát	-4342
▁váy	-4343
▁Đàn	-4344
▁đan	-4345
▁đun	-4346
ville	-4347
▁Băng	-4348
▁chui	-4349
▁elec	-4350
▁hiếu	-4351
▁scan	-4352
▁suối	-4353
▁Kevin	-4354
▁Quảng	-4355
▁click	-4356
▁devil	-4357
▁ngoạn	-4358
▁quăng	-4359
▁Joshua	-4360
▁Newton	-4361
▁Virgin	-4362
▁chuộng	-4363
▁toilet	-4364
▁Silicon	-4365
si	-4366
ye	-4367
ụa	-4368
▁ơ	-4369
ani	-4370
har	-4371
nie	-4372
▁Bi	-4373
▁Gô	-4374
▁Kế	-4375
▁Sk	-4376
▁op	-4377
▁sp	-4378
▁êm	-4379
▁ôi	-4380
▁Đồ	-4381
▁ỏi	-4382
agos	-4383
oint	-4384
ylon	-4385
▁Chu	-4386
▁Chữ	-4387
▁Jul	-4388
▁Lou	-4389
▁Môi	-4390
▁Tem	-4391
▁Xây	-4392
▁cal	-4393
▁cua	-4394
▁cán	-4395
▁cắn	-4396
▁khử	-4397
▁nứt	-4398
▁tạc	-4399
▁đứt	-4400
▁1900	-4401
▁1930	-4402
▁1999	-4403
▁Chân	-4404
▁Leon	-4405
▁Nick	-4406
▁Sher	-4407
▁nhát	-4408
▁nhạo	-4409
▁tước	-4410
▁Chile	-4411
▁Delhi	-4412
▁chuối	-4413
▁Gandhi	-4414
▁100,000	-4415
▁electron	-4416
bo	-4417
ni	-4418
ễn	-4419
▁ủ	-4420
din	-4421
oly	-4422
omp	-4423
ves	-4424
▁38	-4425
▁44	-4426
▁AR	-4427
▁BJ	-4428
▁We	-4429
▁hở	-4430
▁tớ	-4431
▁Bud	-4432
▁Gil	-4433
▁Lin	-4434
▁Mas	-4435
▁Mer	-4436
▁Ram	-4437
▁Red	-4438
▁Sai	-4439
▁bar	-4440
▁cọc	-4441
▁dồi	-4442
▁lót	-4443
▁ngả	-4444
▁sứa	-4445
▁tru	-4446
▁đạm	-4447
eland	-4448
▁2012	-4449
▁Buổi	-4450
▁Carl	-4451
▁Clin	-4452
▁Càng	-4453
▁High	-4454
▁Jane	-4455
▁Miss	-4456
▁Phía	-4457
▁Thần	-4458
▁cafe	-4459
▁chạp	-4460
▁kiềm	-4461
▁thốn	-4462
▁trói	-4463
▁Alpha	-4464
▁Atlan	-4465
▁Lewis	-4466
▁Sarah	-4467
▁Scott	-4468
▁Simon	-4469
▁khinh	-4470
▁Chuyến	-4471
▁Thương	-4472
▁Wright	-4473
▁Wolfram	-4474
▁Alexander	-4475
HA	-4476
cy	-4477
do	-4478
so	-4479
ux	-4480
ùn	-4481
ake	-4482
ato	-4483
hai	-4484
las	-4485
row	-4486
ươc	-4487
▁Ev	-4488
▁GG	-4489
▁Kr	-4490
▁Op	-4491
▁SO	-4492
▁WK	-4493
▁ha	-4494
▁ok	-4495
▁sờ	-4496
▁tẻ	-4497
aeda	-4498
ings	-4499
opia	-4500
▁Arg	-4501
▁Kal	-4502
▁bin	-4503
▁cạo	-4504
▁dào	-4505
▁hoi	-4506
▁lọt	-4507
▁nặc	-4508
▁nến	-4509
▁nộp	-4510
▁rớt	-4511
▁thỏ	-4512
▁tre	-4513
▁xốp	-4514
▁Đâu	-4515
▁đốn	-4516
▁Cuốn	-4517
▁Hiệu	-4518
▁Mạng	-4519
▁Năng	-4520
▁Rand	-4521
▁Tanz	-4522
▁Viết	-4523
▁chật	-4524
▁chọi	-4525
▁cưỡi	-4526
▁giàn	-4527
▁găng	-4528
▁ngủi	-4529
▁nhấc	-4530
▁phàn	-4531
▁quẩn	-4532
▁rong	-4533
▁sưởi	-4534
▁đính	-4535
amburg	-4536
▁Thuật	-4537
▁nguội	-4538
▁phích	-4539
▁thừng	-4540
▁vướng	-4541
ational	-4542
▁Columb	-4543
▁Disney	-4544
▁Stewart	-4545
km	-4546
ech	-4547
hov	-4548
nik	-4549
ode	-4550
ooh	-4551
ors	-4552
urt	-4553
ệch	-4554
▁Ag	-4555
▁Dr	-4556
▁Hi	-4557
▁JH	-4558
▁Ku	-4559
▁Mi	-4560
▁Ra	-4561
▁So	-4562
▁Vỗ	-4563
▁Xu	-4564
▁bì	-4565
▁cớ	-4566
▁vã	-4567
▁ôn	-4568
▁ắc	-4569
inda	-4570
ters	-4571
▁Bot	-4572
▁Căn	-4573
▁Cứu	-4574
▁Fri	-4575
▁Kel	-4576
▁Nỗi	-4577
▁Sus	-4578
▁Thị	-4579
▁Thủ	-4580
▁Trí	-4581
▁bọt	-4582
▁bời	-4583
▁cằn	-4584
▁enz	-4585
▁gắt	-4586
▁hao	-4587
▁tít	-4588
▁xấp	-4589
▁1984	-4590
▁2030	-4591
▁Jill	-4592
▁Jord	-4593
▁Mười	-4594
▁Tuổi	-4595
▁chốc	-4596
▁ngạo	-4597
▁phớt	-4598
▁tiệt	-4599
Global	-4600
entina	-4601
pamine	-4602
▁Phong	-4603
▁Thỉnh	-4604
▁khoác	-4605
▁thiêu	-4606
▁Johnny	-4607
▁Nathan	-4608
▁Brooklyn	-4609
BA	-4610
ún	-4611
▁ừ	-4612
bum	-4613
iff	-4614
ops	-4615
ost	-4616
rab	-4617
rey	-4618
uit	-4619
use	-4620
way	-4621
zab	-4622
▁Bh	-4623
▁Du	-4624
▁Ig	-4625
▁Kỹ	-4626
▁Vị	-4627
▁Xe	-4628
▁bỉ	-4629
▁go	-4630
▁mị	-4631
ardy	-4632
etti	-4633
ican	-4634
ider	-4635
well	-4636
▁1.5	-4637
▁Aus	-4638
▁Báo	-4639
▁Cas	-4640
▁Của	-4641
▁Kat	-4642
▁Moz	-4643
▁Rog	-4644
▁Tah	-4645
▁Trò	-4646
▁cưa	-4647
▁gạo	-4648
▁gớm	-4649
▁háo	-4650
▁lụa	-4651
▁mìn	-4652
▁pop	-4653
▁rìu	-4654
▁trá	-4655
▁trệ	-4656
▁vùi	-4657
ering	-4658
ierra	-4659
▁Bell	-4660
▁Biết	-4661
▁Chúc	-4662
▁Dịch	-4663
▁Lang	-4664
▁Nghị	-4665
▁axit	-4666
▁dưng	-4667
▁dẳng	-4668
▁ghen	-4669
▁iPod	-4670
▁ngọc	-4671
▁nhục	-4672
▁thảy	-4673
▁tuộc	-4674
▁vành	-4675
▁vựng	-4676
▁điếu	-4677
zabeth	-4678
▁Hawai	-4679
▁Julia	-4680
▁Moore	-4681
▁Tranh	-4682
▁giáng	-4683
▁nhúng	-4684
▁phanh	-4685
▁tràng	-4686
enhagen	-4687
▁Bosnia	-4688
▁Venice	-4689
▁khuếch	-4690
▁poster	-4691
▁Tanzania	-4692
▁Virginia	-4693
▁Elizabeth	-4694
▁Parkinson	-4695
▁TEDGlobal	-4696
▁Copenhagen	-4697
MS	-4698
RA	-4699
fa	-4700
my	-4701
và	-4702
ũa	-4703
ẹt	-4704
ợm	-4705
ame	-4706
eas	-4707
eat	-4708
ics	-4709
ily	-4710
ima	-4711
ive	-4712
off	-4713
ose	-4714
ott	-4715
rin	-4716
▁72	-4717
▁Ca	-4718
▁Ko	-4719
▁ah	-4720
▁gl	-4721
▁kg	-4722
▁nộ	-4723
▁tở	-4724
aine	-4725
alem	-4726
ucks	-4727
zler	-4728
▁193	-4729
▁2.5	-4730
▁Bir	-4731
▁Cây	-4732
▁Cục	-4733
▁EDI	-4734
▁Far	-4735
▁Hav	-4736
▁Hir	-4737
▁Mau	-4738
▁Sky	-4739
▁Sun	-4740
▁Syl	-4741
▁Tel	-4742
▁Tóm	-4743
▁Tập	-4744
▁củi	-4745
▁hip	-4746
▁hon	-4747
▁lụt	-4748
▁met	-4749
▁mác	-4750
▁méo	-4751
▁nới	-4752
▁ven	-4753
▁vit	-4754
▁vắt	-4755
▁đặn	-4756
▁Bert	-4757
▁Brit	-4758
▁Ethi	-4759
▁Maya	-4760
▁Phục	-4761
▁buồm	-4762
▁cành	-4763
▁kiều	-4764
▁láng	-4765
▁nhại	-4766
▁nhọn	-4767
▁nhức	-4768
▁tụng	-4769
usalem	-4770
▁Georg	-4771
▁Power	-4772
▁Trang	-4773
▁album	-4774
▁chinh	-4775
▁chích	-4776
▁opera	-4777
▁Colomb	-4778
▁Edward	-4779
▁choàng	-4780
▁Clinton	-4781
▁Teszler	-4782
▁vitamin	-4783
▁dopamine	-4784
▁Argentina	-4785
▁Jerusalem	-4786
IA	-4787
rr	-4788
sy	-4789
õm	-4790
PTC	-4791
edy	-4792
isa	-4793
iti	-4794
oln	-4795
ula	-4796
ỳnh	-4797
▁42	-4798
▁96	-4799
▁Bỏ	-4800
▁Im	-4801
▁Vụ	-4802
▁bự	-4803
eley	-4804
erom	-4805
igan	-4806
▁130	-4807
▁192	-4808
▁Ash	-4809
▁Bas	-4810
▁Hel	-4811
▁Min	-4812
▁Mov	-4813
▁Nội	-4814
▁Tạp	-4815
▁cào	-4816
▁kép	-4817
▁man	-4818
▁nấc	-4819
▁nực	-4820
▁phả	-4821
▁toạ	-4822
▁vỉa	-4823
ellow	-4824
▁Amer	-4825
▁Arch	-4826
▁Carn	-4827
▁Chết	-4828
▁Diễn	-4829
▁Doug	-4830
▁Hung	-4831
▁Linc	-4832
▁Line	-4833
▁Luân	-4834
▁Marc	-4835
▁Nhất	-4836
▁Phân	-4837
▁Port	-4838
▁Quần	-4839
▁Tuần	-4840
▁Từng	-4841
▁diễu	-4842
▁khoe	-4843
▁liêu	-4844
▁lười	-4845
▁mông	-4846
▁nhốt	-4847
▁quầy	-4848
▁thối	-4849
▁viol	-4850
▁đươc	-4851
hammad	-4852
▁Jones	-4853
▁Matth	-4854
▁sương	-4855
▁Sierra	-4856
▁Sylvia	-4857
▁Babylon	-4858
▁Lincoln	-4859
▁silicon	-4860
▁Columbia	-4861
▁Ethiopia	-4862
▁Muhammad	-4863
CA	-4864
tt	-4865
ụn	-4866
▁ả	-4867
ECD	-4868
acy	-4869
asc	-4870
ila	-4871
itt	-4872
kyo	-4873
men	-4874
▁86	-4875
▁Ha	-4876
▁Ti	-4877
▁ao	-4878
▁tạ	-4879
▁xẻ	-4880
▁ớt	-4881
ifer	-4882
phia	-4883
utan	-4884
wich	-4885
▁2.0	-4886
▁350	-4887
▁Dựa	-4888
▁God	-4889
▁Jes	-4890
▁Law	-4891
▁Nic	-4892
▁Roy	-4893
▁Sib	-4894
▁Thư	-4895
▁Tấm	-4896
▁Tới	-4897
▁Val	-4898
▁Yêu	-4899
▁báu	-4900
▁chà	-4901
▁chổ	-4902
▁cúi	-4903
▁dạn	-4904
▁gán	-4905
▁gót	-4906
▁gầy	-4907
▁gốm	-4908
▁gục	-4909
▁lén	-4910
▁mài	-4911
▁mỉa	-4912
▁nóc	-4913
▁rùa	-4914
▁Đào	-4915
▁Đặt	-4916
▁đầm	-4917
PTCHA	-4918
ather	-4919
imbab	-4920
▁Bern	-4921
▁Fort	-4922
▁Giao	-4923
▁Lòng	-4924
▁Minh	-4925
▁Nhận	-4926
▁Niềm	-4927
▁OECD	-4928
▁Thấy	-4929
▁Tinh	-4930
▁Walk	-4931
▁West	-4932
▁acid	-4933
▁iPad	-4934
▁kiếp	-4935
▁lung	-4936
▁lúng	-4937
▁nháy	-4938
▁rảnh	-4939
▁suýt	-4940
▁taxi	-4941
▁xuôi	-4942
▁đắng	-4943
▁Broad	-4944
▁Leone	-4945
▁Lượng	-4946
▁Nhiệm	-4947
▁North	-4948
▁Qatar	-4949
▁Trắng	-4950
▁chênh	-4951
▁huỳnh	-4952
▁phiện	-4953
▁Apollo	-4954
▁Hawaii	-4955
▁Julian	-4956
▁Philad	-4957
▁pherom	-4958
▁Cameron	-4959
▁Somalia	-4960
▁Anderson	-4961
▁Jonathan	-4962
▁Leonardo	-4963
▁Victoria	-4964
▁Greenland	-4965
,1	-4966
,7	-4967
LA	-4968
fi	-4969
kh	-4970
mi	-4971
pi	-4972
ui	-4973
▁z	-4974
aze	-4975
bur	-4976
ena	-4977
ita	-4978
lah	-4979
opa	-4980
rib	-4981
uba	-4982
ule	-4983
ulu	-4984
vít	-4985
ươm	-4986
▁64	-4987
▁98	-4988
▁AO	-4989
▁Bí	-4990
▁Bồ	-4991
▁Ex	-4992
▁It	-4993
▁Tỉ	-4994
▁bệ	-4995
▁sộ	-4996
▁xì	-4997
▁xổ	-4998
ield	-4999
lash	-5000
shah	-5001
uper	-5002
▁1,5	-5003
▁140	-5004
▁160	-5005
▁185	-5006
▁187	-5007
▁Ann	-5008
▁Dub	-5009
▁Hẳn	-5010
▁Kam	-5011
▁Ker	-5012
▁McD	-5013
▁Mức	-5014
▁Net	-5015
▁Rad	-5016
▁Sol	-5017
▁bén	-5018
▁côi	-5019
▁căm	-5020
▁cửu	-5021
▁eur	-5022
▁hen	-5023
▁hức	-5024
▁lãi	-5025
▁mỉm	-5026
▁oxi	-5027
▁sấu	-5028
▁thỉ	-5029
▁tỉa	-5030
▁tởm	-5031
▁xào	-5032
▁ươi	-5033
ennis	-5034
otter	-5035
phone	-5036
utnik	-5037
▁Bali	-5038
▁Biểu	-5039
▁City	-5040
▁Edin	-5041
▁Emma	-5042
▁Hiển	-5043
▁Khan	-5044
▁Khối	-5045
▁News	-5046
▁Siêu	-5047
▁Temp	-5048
▁Well	-5049
▁Xanh	-5050
▁chéo	-5051
▁chảo	-5052
▁giầy	-5053
▁ngâm	-5054
▁quấn	-5055
▁rock	-5056
▁thản	-5057
▁điểu	-5058
▁đười	-5059
azeera	-5060
ladesh	-5061
▁Alice	-5062
▁Earth	-5063
▁Kelly	-5064
▁Starb	-5065
▁Tokyo	-5066
▁ngoặt	-5067
▁virut	-5068
imbabwe	-5069
shahidi	-5070
▁Siberia	-5071
▁Sputnik	-5072
▁Berkeley	-5073
▁National	-5074
▁Edinburgh	-5075
▁Tasmanian	-5076
OX	-5077
ơc	-5078
200	-5079
ade	-5080
aig	-5081
ken	-5082
obi	-5083
une	-5084
▁BR	-5085
▁CN	-5086
▁Mở	-5087
▁tý	-5088
▁đự	-5089
aska	-5090
egie	-5091
nedy	-5092
tông	-5093
uron	-5094
▁180	-5095
▁Bel	-5096
▁Boy	-5097
▁Ele	-5098
▁Eve	-5099
▁FOX	-5100
▁Had	-5101
▁Khó	-5102
▁Mắt	-5103
▁Pol	-5104
▁Sud	-5105
▁bịt	-5106
▁cày	-5107
▁gas	-5108
▁hor	-5109
▁ion	-5110
▁mầu	-5111
▁mộc	-5112
▁ngự	-5113
▁rậm	-5114
▁sáp	-5115
▁tòi	-5116
▁vầy	-5117
▁xoa	-5118
▁xáo	-5119
▁xót	-5120
▁xịt	-5121
▁ăng	-5122
▁Đài	-5123
▁Đời	-5124
▁đỗi	-5125
graph	-5126
rence	-5127
▁1996	-5128
▁5000	-5129
▁Anas	-5130
▁Camp	-5131
▁Giám	-5132
▁Gran	-5133
▁Jeop	-5134
▁Khác	-5135
▁Nike	-5136
▁Penn	-5137
▁Shir	-5138
▁Sống	-5139
▁Thầy	-5140
▁Whit	-5141
▁bướu	-5142
▁chóp	-5143
▁cúng	-5144
▁cưng	-5145
▁giục	-5146
▁mánh	-5147
▁nham	-5148
▁poly	-5149
▁quấy	-5150
▁rãnh	-5151
▁rồng	-5152
▁điếc	-5153
elphia	-5154
▁Movem	-5155
▁Tesla	-5156
▁Triều	-5157
thalate	-5158
▁Copern	-5159
▁Luther	-5160
▁Steven	-5161
amburger	-5162
▁100.000	-5163
▁Atlanta	-5164
▁Jazeera	-5165
▁Kennedy	-5166
▁Carnegie	-5167
▁Colombia	-5168
▁Michigan	-5169
▁Christoph	-5170
▁Starbucks	-5171
▁Bangladesh	-5172
▁Philadelphia	-5173
-3	-5174
40	-5175
DA	-5176
EA	-5177
Sp	-5178
hh	-5179
oa	-5180
zơ	-5181
ễu	-5182
ait	-5183
aly	-5184
ava	-5185
bie	-5186
ble	-5187
key	-5188
lem	-5189
med	-5190
oir	-5191
ome	-5192
rah	-5193
reg	-5194
the	-5195
ura	-5196
wen	-5197
▁3.	-5198
▁41	-5199
▁43	-5200
▁58	-5201
▁93	-5202
▁AK	-5203
▁AM	-5204
▁DJ	-5205
▁Dữ	-5206
▁Ke	-5207
▁cm	-5208
▁dì	-5209
▁na	-5210
▁rà	-5211
ello	-5212
ihad	-5213
mart	-5214
olas	-5215
omen	-5216
rick	-5217
▁2,5	-5218
▁Ach	-5219
▁Chi	-5220
▁Eng	-5221
▁Gar	-5222
▁Gửi	-5223
▁Hal	-5224
▁Map	-5225
▁Mất	-5226
▁Phố	-5227
▁Quí	-5228
▁bit	-5229
▁bôi	-5230
▁bầm	-5231
▁hốc	-5232
▁lầy	-5233
▁ooh	-5234
▁trớ	-5235
▁tụi	-5236
▁vác	-5237
▁vôi	-5238
▁xâu	-5239
▁xắn	-5240
▁Đôn	-5241
phere	-5242
▁1998	-5243
▁Biển	-5244
▁Bánh	-5245
▁Cher	-5246
▁Chia	-5247
▁Danh	-5248
▁Giữa	-5249
▁Hawk	-5250
▁Ivan	-5251
▁Joel	-5252
▁Mong	-5253
▁Nair	-5254
▁Phản	-5255
▁Rach	-5256
▁Rick	-5257
▁Suốt	-5258
▁Sách	-5259
▁Tạng	-5260
▁Yves	-5261
▁chén	-5262
▁chói	-5263
▁chải	-5264
▁chồn	-5265
▁ghim	-5266
▁giun	-5267
▁nhôm	-5268
▁sand	-5269
▁test	-5270
▁trỗi	-5271
▁viền	-5272
▁yeah	-5273
apagos	-5274
opatch	-5275
▁1.000	-5276
▁2,000	-5277
▁Emily	-5278
▁Marco	-5279
▁Mitch	-5280
▁Ngành	-5281
▁Roger	-5282
▁Super	-5283
▁Susan	-5284
▁chiết	-5285
▁duyên	-5286
▁khống	-5287
▁triễn	-5288
graphic	-5289
▁50.000	-5290
▁Lakota	-5291
▁Warren	-5292
▁Everest	-5293
▁Hungary	-5294
▁Jackson	-5295
▁Movember	-5296
▁Tasmania	-5297
▁Galapagos	-5298
▁Nanopatch	-5299
▁hamburger	-5300
..	-5301
12	-5302
Ch	-5303
nd	-5304
nô	-5305
pu	-5306
sc	-5307
zz	-5308
eng	-5309
ial	-5310
inn	-5311
iva	-5312
ocr	-5313
tim	-5314
unk	-5315
ềng	-5316
▁52	-5317
▁74	-5318
▁ES	-5319
▁IM	-5320
▁Kẻ	-5321
▁Nô	-5322
▁Sở	-5323
▁Tử	-5324
▁et	-5325
▁ox	-5326
▁ve	-5327
▁vá	-5328
▁ập	-5329
airo	-5330
eman	-5331
epal	-5332
zona	-5333
▁190	-5334
▁Chờ	-5335
▁Cor	-5336
▁Dàn	-5337
▁FGM	-5338
▁Giê	-5339
▁Hạt	-5340
▁Khí	-5341
▁Leb	-5342
▁Lạt	-5343
▁Oak	-5344
▁Oli	-5345
▁Pep	-5346
▁Pri	-5347
▁Res	-5348
▁Sad	-5349
▁She	-5350
▁Trị	-5351
▁Trừ	-5352
▁Xét	-5353
▁dấn	-5354
▁gel	-5355
▁ghề	-5356
▁gật	-5357
▁hel	-5358
▁lẫy	-5359
▁sập	-5360
▁tột	-5361
▁Đám	-5362
▁Đêm	-5363
▁đắc	-5364
attle	-5365
ivers	-5366
onald	-5367
umbai	-5368
▁1994	-5369
▁1995	-5370
▁Beat	-5371
▁Beet	-5372
▁Dùng	-5373
▁Jess	-5374
▁bàng	-5375
▁bành	-5376
▁báng	-5377
▁ngặt	-5378
▁việt	-5379
▁vũng	-5380
▁Aaron	-5381
▁Chứng	-5382
▁Louis	-5383
▁Nepal	-5384
▁Princ	-5385
▁Sudan	-5386
▁chằng	-5387
▁giềng	-5388
▁khuấy	-5389
▁ngước	-5390
▁phông	-5391
▁quáng	-5392
▁thủng	-5393
▁Bhutan	-5394
▁Kansas	-5395
▁Mumbai	-5396
▁Samuel	-5397
▁nguyệt	-5398
▁nhượng	-5399
osterone	-5400
▁Arizona	-5401
▁CAPTCHA	-5402
▁Johnson	-5403
▁Tempest	-5404
▁Jeopardy	-5405
▁Princeton	-5406
▁Christopher	-5407
80	-5408
SC	-5409
rô	-5410
ym	-5411
ựu	-5412
▁á	-5413
ado	-5414
chi	-5415
emy	-5416
ias	-5417
môn	-5418
một	-5419
ons	-5420
ows	-5421
ray	-5422
str	-5423
tic	-5424
ump	-5425
vis	-5426
▁47	-5427
▁97	-5428
▁CS	-5429
▁Dễ	-5430
▁IP	-5431
▁PH	-5432
▁RW	-5433
▁Sa	-5434
▁Sn	-5435
▁bã	-5436
▁me	-5437
▁no	-5438
▁đu	-5439
ater	-5440
atur	-5441
cent	-5442
cher	-5443
ette	-5444
imet	-5445
onto	-5446
osau	-5447
ston	-5448
▁900	-5449
▁Aur	-5450
▁Die	-5451
▁Fox	-5452
▁Gro	-5453
▁Hol	-5454
▁Kur	-5455
▁Lai	-5456
▁Lực	-5457
▁Mus	-5458
▁Rod	-5459
▁Seb	-5460
▁Sen	-5461
▁Str	-5462
▁Tai	-5463
▁Tám	-5464
▁Tầm	-5465
▁Tức	-5466
▁Vik	-5467
▁còi	-5468
▁cẩm	-5469
▁fan	-5470
▁lít	-5471
▁mao	-5472
▁mặn	-5473
▁náo	-5474
▁nồi	-5475
▁prô	-5476
▁rap	-5477
▁reo	-5478
▁sẹo	-5479
▁trù	-5480
▁tản	-5481
▁tặc	-5482
▁đậy	-5483
▁đắp	-5484
eller	-5485
hoven	-5486
▁Alan	-5487
▁Chad	-5488
▁Clay	-5489
▁Giấc	-5490
▁Luôn	-5491
▁Mass	-5492
▁Romo	-5493
▁Time	-5494
▁Tiêu	-5495
▁amin	-5496
▁bịch	-5497
▁gram	-5498
▁hiên	-5499
▁nhai	-5500
▁nhọc	-5501
▁suôn	-5502
▁thẹn	-5503
▁thỉu	-5504
▁trơn	-5505
▁tưới	-5506
▁vuốt	-5507
ribati	-5508
▁Cairo	-5509
▁Grand	-5510
▁Inter	-5511
▁Jesus	-5512
▁Jonas	-5513
▁Larry	-5514
▁Ngươi	-5515
▁Skype	-5516
▁Thách	-5517
▁phình	-5518
▁viếng	-5519
▁20.000	-5520
▁Alaska	-5521
▁Berlin	-5522
▁Havard	-5523
▁Rachel	-5524
▁Taylor	-5525
▁violin	-5526
▁Jennifer	-5527
▁Kiribati	-5528
▁Beethoven	-5529
▁testosterone	-5530
99	-5531
NG	-5532
gi	-5533
hm	-5534
ii	-5535
kr	-5536
yo	-5537
▁q	-5538
aus	-5539
ban	-5540
cou	-5541
ean	-5542
ene	-5543
iro	-5544
oli	-5545
ool	-5546
orm	-5547
oud	-5548
ral	-5549
ưởi	-5550
▁34	-5551
▁77	-5552
▁Bé	-5553
▁Cổ	-5554
▁Gl	-5555
▁IQ	-5556
▁Li	-5557
▁SA	-5558
▁SR	-5559
▁XL	-5560
▁gồ	-5561
▁it	-5562
▁kị	-5563
▁lố	-5564
▁má	-5565
▁vv	-5566
▁xở	-5567
▁ín	-5568
▁ầm	-5569
alay	-5570
alin	-5571
eyer	-5572
icus	-5573
ines	-5574
omet	-5575
stan	-5576
tech	-5577
word	-5578
▁125	-5579
▁450	-5580
▁Art	-5581
▁Bil	-5582
▁Bàn	-5583
▁CNN	-5584
▁Cru	-5585
▁Cur	-5586
▁Gan	-5587
▁Lên	-5588
▁Lập	-5589
▁McK	-5590
▁Mul	-5591
▁Nấm	-5592
▁Scr	-5593
▁Sản	-5594
▁Vol	-5595
▁Vua	-5596
▁Vận	-5597
▁câm	-5598
▁cỗi	-5599
▁dấy	-5600
▁gôn	-5601
▁gầm	-5602
▁hèn	-5603
▁hươ	-5604
▁hắc	-5605
▁lẽo	-5606
▁nai	-5607
▁nhẽ	-5608
▁sạc	-5609
▁sụt	-5610
▁trỏ	-5611
ersey	-5612
garet	-5613
ister	-5614
ustin	-5615
▁1975	-5616
▁Cuba	-5617
▁Dick	-5618
▁Dòng	-5619
▁Free	-5620
▁Hoạt	-5621
▁Hồng	-5622
▁Jean	-5623
▁Mama	-5624
▁Ryan	-5625
▁Stef	-5626
▁Will	-5627
▁bazơ	-5628
▁chổi	-5629
▁họng	-5630
▁kiêu	-5631
▁liễu	-5632
▁lộng	-5633
▁nang	-5634
▁ngần	-5635
▁ngợp	-5636
▁phao	-5637
▁rách	-5638
▁ròng	-5639
▁đựơc	-5640
▁Grace	-5641
▁Great	-5642
▁Plato	-5643
▁Thung	-5644
▁Titus	-5645
▁chanh	-5646
▁giang	-5647
▁quẳng	-5648
▁thình	-5649
▁50,000	-5650
▁Cheryl	-5651
▁Europa	-5652
▁Jersey	-5653
▁Jordan	-5654
▁Trưởng	-5655
▁Yorker	-5656
▁Seattle	-5657
▁Lawrence	-5658
▁Margaret	-5659
▁McDonald	-5660
▁sandwich	-5661
▁Jefferson	-5662
▁Lesterland	-5663
ko	-5664
RNA	-5665
Tôi	-5666
act	-5667
aza	-5668
cha	-5669
ead	-5670
ezu	-5671
fur	-5672
iêt	-5673
opy	-5674
ori	-5675
tan	-5676
tel	-5677
▁82	-5678
▁AV	-5679
▁BM	-5680
▁Bo	-5681
▁Bị	-5682
▁CC	-5683
▁Hạ	-5684
▁Kỷ	-5685
▁LH	-5686
▁Sl	-5687
▁TH	-5688
▁TS	-5689
▁bo	-5690
▁bú	-5691
▁dè	-5692
▁en	-5693
▁gu	-5694
▁ki	-5695
▁mĩ	-5696
▁tứ	-5697
able	-5698
illa	-5699
imee	-5700
inea	-5701
rina	-5702
uyển	-5703
▁All	-5704
▁Cao	-5705
▁DAR	-5706
▁Dam	-5707
▁FBI	-5708
▁Fib	-5709
▁Ful	-5710
▁Has	-5711
▁Hát	-5712
▁Jar	-5713
▁Kib	-5714
▁Lạy	-5715
▁Mai	-5716
▁McG	-5717
▁Nhớ	-5718
▁Sắp	-5719
▁Tho	-5720
▁Tob	-5721
▁Tun	-5722
▁Tạm	-5723
▁Ver	-5724
▁bus	-5725
▁bịp	-5726
▁gặm	-5727
▁khờ	-5728
▁kèn	-5729
▁loé	-5730
▁lạy	-5731
▁nhô	-5732
▁phu	-5733
▁rạc	-5734
▁rẩy	-5735
▁rọi	-5736
▁thà	-5737
▁xói	-5738
▁Đội	-5739
▁Đợi	-5740
▁đút	-5741
Women	-5742
allon	-5743
athon	-5744
regon	-5745
▁1997	-5746
▁4000	-5747
▁Arab	-5748
▁Beau	-5749
▁Biến	-5750
▁Blue	-5751
▁Conn	-5752
▁Cười	-5753
▁Dean	-5754
▁Doha	-5755
▁FOXO	-5756
▁Gary	-5757
▁Hann	-5758
▁Juli	-5759
▁Mary	-5760
▁Peru	-5761
▁Quản	-5762
▁Rome	-5763
▁Ross	-5764
▁Russ	-5765
▁Tham	-5766
▁Vinc	-5767
▁Vòng	-5768
▁Vùng	-5769
▁giễu	-5770
▁hươu	-5771
▁link	-5772
▁miên	-5773
▁nhấm	-5774
▁nòng	-5775
▁nấng	-5776
▁pass	-5777
▁phẫn	-5778
▁rạng	-5779
▁sừng	-5780
▁thuở	-5781
▁thêu	-5782
▁thạc	-5783
▁trút	-5784
couver	-5785
otonin	-5786
timore	-5787
▁Aimee	-5788
▁Beach	-5789
▁Craig	-5790
▁Denis	-5791
▁Diana	-5792
▁Diego	-5793
▁Fried	-5794
▁Jerry	-5795
▁Keith	-5796
▁Khủng	-5797
▁Kyoto	-5798
▁Thanh	-5799
▁Thuốc	-5800
▁buông	-5801
▁games	-5802
▁khuya	-5803
▁mường	-5804
▁spagh	-5805
▁Bertie	-5806
▁Graham	-5807
▁Guinea	-5808
▁Island	-5809
▁Murray	-5810
▁Oliver	-5811
▁Oregon	-5812
▁Phượng	-5813
▁Thuyết	-5814
▁Hawking	-5815
▁Katrina	-5816
▁Nairobi	-5817
▁Toronto	-5818
▁Mitchell	-5819
▁marathon	-5820
▁password	-5821
▁phthalate	-5822
▁spaghetti	-5823
▁Geographic	-5824
CC	-5825
da	-5826
ều	-5827
app	-5828
atz	-5829
ays	-5830
bốn	-5831
ese	-5832
eta	-5833
ont	-5834
rie	-5835
tha	-5836
ugh	-5837
▁0,	-5838
▁2,	-5839
▁54	-5840
▁Bờ	-5841
▁CL	-5842
▁DP	-5843
▁Fr	-5844
▁MG	-5845
▁Mã	-5846
▁Mê	-5847
▁On	-5848
▁RG	-5849
▁sỡ	-5850
▁wh	-5851
▁đê	-5852
abad	-5853
acci	-5854
agan	-5855
ager	-5856
anic	-5857
anon	-5858
fred	-5859
iger	-5860
ites	-5861
rane	-5862
▁1,2	-5863
▁1.2	-5864
▁Bah	-5865
▁Blo	-5866
▁Cơn	-5867
▁Dor	-5868
▁Dây	-5869
▁Dấu	-5870
▁Dầu	-5871
▁FDA	-5872
▁Gay	-5873
▁Geh	-5874
▁Ger	-5875
▁Him	-5876
▁Hop	-5877
▁Jas	-5878
▁Jud	-5879
▁Lâm	-5880
▁Met	-5881
▁Mot	-5882
▁Mày	-5883
▁Nửa	-5884
▁Oxy	-5885
▁SMS	-5886
▁Sil	-5887
▁Tôn	-5888
▁bần	-5889
▁cáu	-5890
▁cõi	-5891
▁cơm	-5892
▁dẫu	-5893
▁gởi	-5894
▁lon	-5895
▁mịn	-5896
▁nhổ	-5897
▁nôi	-5898
▁nôn	-5899
▁nặn	-5900
▁sải	-5901
▁sảy	-5902
▁sấm	-5903
▁tem	-5904
▁top	-5905
▁tro	-5906
▁viê	-5907
▁vóc	-5908
▁xít	-5909
▁đẫm	-5910
▁ướp	-5911
alore	-5912
athem	-5913
eeney	-5914
etown	-5915
owitz	-5916
▁1945	-5917
▁1992	-5918
▁2020	-5919
▁6000	-5920
▁Bolt	-5921
▁Bóng	-5922
▁Chạy	-5923
▁Dave	-5924
▁Gord	-5925
▁Gwen	-5926
▁Hall	-5927
▁Kích	-5928
▁Luận	-5929
▁Miễn	-5930
▁Nich	-5931
▁Nông	-5932
▁Pier	-5933
▁Rose	-5934
▁Schw	-5935
▁Stir	-5936
▁Tiên	-5937
▁calo	-5938
▁file	-5939
▁hoạn	-5940
▁hãnh	-5941
▁kiêm	-5942
▁miệt	-5943
▁prog	-5944
▁rành	-5945
▁rạch	-5946
▁rụng	-5947
▁teen	-5948
▁thoa	-5949
▁trâu	-5950
▁trọt	-5951
▁xuẩn	-5952
▁Đứng	-5953
▁điềm	-5954
▁đấng	-5955
easure	-5956
ezuela	-5957
onacci	-5958
▁1,000	-5959
▁Brend	-5960
▁Chống	-5961
▁Dubai	-5962
▁Julie	-5963
▁Mario	-5964
▁Nhiên	-5965
▁Qaeda	-5966
▁State	-5967
▁Stock	-5968
▁Trăng	-5969
▁Tunis	-5970
▁canxi	-5971
▁chệch	-5972
▁metan	-5973
▁shock	-5974
▁Walker	-5975
▁neuron	-5976
▁nguyền	-5977
▁Himalay	-5978
▁Lebanon	-5979
▁Matthew	-5980
▁Oakland	-5981
▁Franklin	-5982
▁Treasure	-5983
▁microRNA	-5984
▁Baltimore	-5985
▁Bangalore	-5986
▁Fibonacci	-5987
▁Vancouver	-5988
▁Venezuela	-5989
▁serotonin	-5990
▁Copernicus	-5991
br	-5992
oz	-5993
pr	-5994
sw	-5995
▁#	-5996
aks	-5997
ave	-5998
erb	-5999
ibo	-6000
ife	-6001
obs	-6002
ree	-6003
uce	-6004
usd	-6005
▁53	-6006
▁57	-6007
▁68	-6008
▁78	-6009
▁Il	-6010
▁Ty	-6011
▁Tệ	-6012
▁Tỷ	-6013
▁gò	-6014
▁tú	-6015
▁tể	-6016
ange	-6017
ecca	-6018
echn	-6019
eech	-6020
ideo	-6021
itra	-6022
lins	-6023
mann	-6024
nett	-6025
obyl	-6026
ould	-6027
over	-6028
ream	-6029
▁1.3	-6030
▁110	-6031
▁404	-6032
▁Abu	-6033
▁Ali	-6034
▁Bán	-6035
▁CAD	-6036
▁Chế	-6037
▁Dol	-6038
▁Ess	-6039
▁Kle	-6040
▁Len	-6041
▁Leo	-6042
▁Lev	-6043
▁Mời	-6044
▁Pap	-6045
▁Sob	-6046
▁Teh	-6047
▁Xếp	-6048
▁bạt	-6049
▁bục	-6050
▁cat	-6051
▁dẫm	-6052
▁gào	-6053
▁gáy	-6054
▁hun	-6055
▁loà	-6056
▁lẩn	-6057
▁mút	-6058
▁mội	-6059
▁quỳ	-6060
▁sun	-6061
▁sút	-6062
▁you	-6063
▁Đạt	-6064
berry	-6065
field	-6066
ition	-6067
lider	-6068
oshop	-6069
▁Anth	-6070
▁Buồn	-6071
▁Cent	-6072
▁Gaza	-6073
▁Greg	-6074
▁Khái	-6075
▁Kiểm	-6076
▁Like	-6077
▁Lock	-6078
▁Palm	-6079
▁Pink	-6080
▁Rory	-6081
▁SOPA	-6082
▁Tenn	-6083
▁Thập	-6084
▁Thức	-6085
▁Tiểu	-6086
▁Yale	-6087
▁axít	-6088
▁chắt	-6089
▁duỗi	-6090
▁giòn	-6091
▁gluc	-6092
▁horm	-6093
▁nhún	-6094
▁phai	-6095
▁quật	-6096
▁rưởi	-6097
▁thoi	-6098
▁xông	-6099
enberg	-6100
▁Billy	-6101
▁Chern	-6102
▁Gando	-6103
▁Jamai	-6104
▁Khách	-6105
▁Pepsi	-6106
▁Saudi	-6107
▁ngách	-6108
osaurus	-6109
otoshop	-6110
▁Alfred	-6111
▁Fellow	-6112
▁Harlem	-6113
▁Mozart	-6114
▁Panthe	-6115
▁Potter	-6116
▁Sobule	-6117
▁Tehran	-6118
▁gallon	-6119
▁nghênh	-6120
▁nitric	-6121
▁Liberia	-6122
▁Melinda	-6123
▁Phillip	-6124
▁Sweeney	-6125
▁American	-6126
▁Stirling	-6127
▁Chernobyl	-6128
.&	-6129
SE	-6130
ct	-6131
hr	-6132
ww	-6133
ợc	-6134
aga	-6135
aha	-6136
ars	-6137
awa	-6138
awi	-6139
bor	-6140
cia	-6141
esa	-6142
esk	-6143
ipp	-6144
ira	-6145
let	-6146
oko	-6147
oux	-6148
rir	-6149
rof	-6150
▁00	-6151
▁39	-6152
▁84	-6153
▁Az	-6154
▁Ix	-6155
▁PI	-6156
▁Rh	-6157
▁Ru	-6158
▁át	-6159
▁ảm	-6160
atem	-6161
idge	-6162
mail	-6163
oman	-6164
urch	-6165
▁186	-6166
▁189	-6167
▁360	-6168
▁Ail	-6169
▁Alb	-6170
▁Clo	-6171
▁Dai	-6172
▁Deb	-6173
▁Dow	-6174
▁Dur	-6175
▁Haz	-6176
▁Hun	-6177
▁Kay	-6178
▁Lim	-6179
▁Lợi	-6180
▁Mak	-6181
▁Med	-6182
▁Màn	-6183
▁Nov	-6184
▁Ooh	-6185
▁Ott	-6186
▁Reb	-6187
▁Sug	-6188
▁Thể	-6189
▁Vui	-6190
▁bíp	-6191
▁dốt	-6192
▁gra	-6193
▁gân	-6194
▁hời	-6195
▁kén	-6196
▁lẫm	-6197
▁mau	-6198
▁nhì	-6199
▁nọc	-6200
▁rán	-6201
▁son	-6202
▁ter	-6203
▁vãn	-6204
▁xén	-6205
▁đũa	-6206
ambia	-6207
extin	-6208
insky	-6209
olate	-6210
shire	-6211
▁1989	-6212
▁Chọn	-6213
▁Chức	-6214
▁East	-6215
▁Evan	-6216
▁Hiến	-6217
▁Hong	-6218
▁Irag	-6219
▁MoMA	-6220
▁Neil	-6221
▁Nguy	-6222
▁Nico	-6223
▁Sang	-6224
▁Sara	-6225
▁Shar	-6226
▁Soph	-6227
▁Tháp	-6228
▁Tora	-6229
▁Wiki	-6230
▁Wood	-6231
▁chen	-6232
▁foot	-6233
▁lanh	-6234
▁luẩn	-6235
▁ngửa	-6236
▁nhảm	-6237
▁sưng	-6238
▁thục	-6239
▁uyên	-6240
▁văng	-6241
▁vụng	-6242
▁Đánh	-6243
Speech	-6244
astian	-6245
nivers	-6246
▁2.000	-6247
▁Bruce	-6248
▁Doanh	-6249
▁Dolby	-6250
▁Essex	-6251
▁Gehry	-6252
▁Marsh	-6253
▁Meyer	-6254
▁Moses	-6255
▁Nhiếp	-6256
▁Oprah	-6257
▁Oscar	-6258
▁Santa	-6259
▁Stone	-6260
▁Trọng	-6261
▁White	-6262
▁biếng	-6263
▁chửng	-6264
atemala	-6265
sterdam	-6266
▁Barack	-6267
▁Bonnie	-6268
▁Justin	-6269
▁Latinh	-6270
▁Norman	-6271
▁Stefan	-6272
▁Tahrir	-6273
▁chuồng	-6274
▁Caltech	-6275
▁Langley	-6276
▁Tenness	-6277
▁Williams	-6278
▁progeria	-6279
▁Guatemala	-6280
▁pheromone	-6281
▁FreeSpeech	-6282
-4	-6283
.9	-6284
IC	-6285
ax	-6286
ho	-6287
ệp	-6288
ỏm	-6289
201	-6290
MED	-6291
aba	-6292
aki	-6293
asa	-6294
ats	-6295
cas	-6296
gan	-6297
hen	-6298
its	-6299
lot	-6300
mud	-6301
obo	-6302
ois	-6303
oke	-6304
oma	-6305
ote	-6306
rig	-6307
syl	-6308
yon	-6309
ẵng	-6310
▁67	-6311
▁AG	-6312
▁Dạ	-6313
▁HS	-6314
▁MA	-6315
▁Ni	-6316
▁Py	-6317
▁SS	-6318
▁Vẻ	-6319
▁Vợ	-6320
▁aw	-6321
▁is	-6322
▁rơ	-6323
▁rộ	-6324
▁yo	-6325
▁út	-6326
Talk	-6327
artz	-6328
elle	-6329
etts	-6330
evel	-6331
ingo	-6332
itan	-6333
moud	-6334
rich	-6335
tion	-6336
untu	-6337
ynth	-6338
▁1-2	-6339
▁App	-6340
▁Ark	-6341
▁Aye	-6342
▁Coo	-6343
▁ESG	-6344
▁Fed	-6345
▁Fey	-6346
▁Giữ	-6347
▁Gri	-6348
▁Hỏi	-6349
▁INC	-6350
▁Kep	-6351
▁Kir	-6352
▁Kos	-6353
▁Lựa	-6354
▁Max	-6355
▁Men	-6356
▁Mik	-6357
▁Mir	-6358
▁NBA	-6359
▁Pic	-6360
▁Por	-6361
▁Sis	-6362
▁Sri	-6363
▁Tar	-6364
▁Tod	-6365
▁bịa	-6366
▁cật	-6367
▁cội	-6368
▁daf	-6369
▁doo	-6370
▁dặn	-6371
▁giở	-6372
▁gặt	-6373
▁hót	-6374
▁hằn	-6375
▁kẽm	-6376
▁lầu	-6377
▁ngó	-6378
▁ngơ	-6379
▁noi	-6380
▁náu	-6381
▁pen	-6382
▁rụi	-6383
▁sên	-6384
▁sảo	-6385
▁sục	-6386
▁sụn	-6387
▁thê	-6388
▁túp	-6389
▁tấu	-6390
▁Độc	-6391
▁đấm	-6392
achus	-6393
awatt	-6394
eline	-6395
inder	-6396
leans	-6397
ookie	-6398
umara	-6399
vania	-6400
▁1986	-6401
▁2013	-6402
▁Band	-6403
▁Bono	-6404
▁Carr	-6405
▁Chen	-6406
▁Chụp	-6407
▁Coch	-6408
▁Cánh	-6409
▁Dừng	-6410
▁Econ	-6411
▁Hạnh	-6412
▁Irắc	-6413
▁Jake	-6414
▁Joey	-6415
▁Karl	-6416
▁Kate	-6417
▁Kent	-6418
▁Khám	-6419
▁Loan	-6420
▁PIPA	-6421
▁Post	-6422
▁Serg	-6423
▁Viễn	-6424
▁comp	-6425
▁copy	-6426
▁hoán	-6427
▁hoóc	-6428
▁khoả	-6429
▁ngấm	-6430
▁ngất	-6431
▁nhoi	-6432
▁nhút	-6433
▁nung	-6434
▁phồn	-6435
▁tuôn	-6436
▁viêc	-6437
▁váng	-6438
▁watt	-6439
▁10000	-6440
▁3,000	-6441
▁5,000	-6442
▁Ailen	-6443
▁Ariel	-6444
▁Austr	-6445
▁Bloom	-6446
▁Brand	-6447
▁Chồng	-6448
▁Harry	-6449
▁Intel	-6450
▁Jacqu	-6451
▁Maria	-6452
▁Moham	-6453
▁Phiên	-6454
▁Quyển	-6455
▁Solly	-6456
▁Stand	-6457
▁Stein	-6458
▁Tarah	-6459
▁Thula	-6460
▁Triển	-6461
▁Weibo	-6462
▁cello	-6463
▁chiêu	-6464
▁chững	-6465
▁khoát	-6466
▁loang	-6467
▁loãng	-6468
▁ngừơi	-6469
▁thiển	-6470
▁Archie	-6471
▁Carter	-6472
▁Chuyển	-6473
▁Cooper	-6474
▁Dennis	-6475
▁Kepler	-6476
▁Kibera	-6477
▁Miller	-6478
▁TEDMED	-6479
▁khoanh	-6480
▁nhoáng	-6481
sylvania	-6482
▁Anthony	-6483
▁Gilbert	-6484
▁Goering	-6485
▁Ireland	-6486
▁Mahmoud	-6487
▁Orleans	-6488
▁TEDTalk	-6489
▁blogger	-6490
▁Arkansas	-6491
▁Nicholas	-6492
▁Palextin	-6493
▁Pantheon	-6494
▁TEDWomen	-6495
▁Tennessee	-6496
▁Tarahumara	-6497
▁Pennsylvania	-6498
,8	-6499
-6	-6500
EF	-6501
EG	-6502
Hz	-6503
OL	-6504
OS	-6505
cm	-6506
ki	-6507
yc	-6508
ém	-6509
êt	-6510
ôc	-6511
đi	-6512
▁ĩ	-6513
▁ờ	-6514
CLA	-6515
agu	-6516
bao	-6517
bin	-6518
box	-6519
cam	-6520
eek	-6521
ega	-6522
egg	-6523
els	-6524
ets	-6525
eus	-6526
evo	-6527
fli	-6528
gen	-6529
kar	-6530
oga	-6531
ogy	-6532
ria	-6533
ẩng	-6534
▁76	-6535
▁94	-6536
▁BP	-6537
▁CH	-6538
▁DD	-6539
▁Ge	-6540
▁Gì	-6541
▁Hồ	-6542
▁IK	-6543
▁Nổ	-6544
▁Ol	-6545
▁Sỹ	-6546
▁Xa	-6547
▁ar	-6548
▁eB	-6549
▁pa	-6550
▁rợ	-6551
▁Đề	-6552
▁Đủ	-6553
▁đả	-6554
amas	-6555
ambi	-6556
colm	-6557
dyss	-6558
eber	-6559
elli	-6560
erat	-6561
flix	-6562
holm	-6563
icut	-6564
iley	-6565
ilot	-6566
itha	-6567
moor	-6568
owan	-6569
pson	-6570
tail	-6571
tein	-6572
trol	-6573
zero	-6574
▁1.6	-6575
▁Bow	-6576
▁CIA	-6577
▁Chứ	-6578
▁Com	-6579
▁Dem	-6580
▁Dun	-6581
▁Dần	-6582
▁Fai	-6583
▁Git	-6584
▁Gol	-6585
▁Gul	-6586
▁Hit	-6587
▁Hmm	-6588
▁Hot	-6589
▁Lab	-6590
▁Les	-6591
▁Lyn	-6592
▁Mao	-6593
▁Nar	-6594
▁Nat	-6595
▁Nik	-6596
▁Sci	-6597
▁Sẵn	-6598
▁Tso	-6599
▁Tàu	-6600
▁Tái	-6601
▁Tốc	-6602
▁Tội	-6603
▁Tụi	-6604
▁Vây	-6605
▁Win	-6606
▁Woo	-6607
▁Yếu	-6608
▁cợt	-6609
▁dép	-6610
▁est	-6611
▁hop	-6612
▁lốc	-6613
▁mem	-6614
▁neo	-6615
▁núm	-6616
▁nại	-6617
▁nạt	-6618
▁nấp	-6619
▁râm	-6620
▁rẫy	-6621
▁rắm	-6622
▁rệp	-6623
▁sủa	-6624
▁vấp	-6625
▁vệt	-6626
▁vịn	-6627
▁xao	-6628
▁Đấu	-6629
▁đùi	-6630
Point	-6631
adore	-6632
aster	-6633
astle	-6634
atica	-6635
leton	-6636
lotte	-6637
những	-6638
yland	-6639
▁1500	-6640
▁1800	-6641
▁1985	-6642
▁1988	-6643
▁Andy	-6644
▁Barb	-6645
▁Brad	-6646
▁Bảng	-6647
▁Chìa	-6648
▁Chín	-6649
▁Fred	-6650
▁Hamp	-6651
▁Inst	-6652
▁Kiva	-6653
▁Kông	-6654
▁Mang	-6655
▁Nauy	-6656
▁Noah	-6657
▁Noel	-6658
▁Part	-6659
▁Phim	-6660
▁Shah	-6661
▁Viên	-6662
▁Vàng	-6663
▁Vượt	-6664
▁Wang	-6665
▁Wind	-6666
▁choc	-6667
▁chậu	-6668
▁chộp	-6669
▁hỉnh	-6670
▁khoé	-6671
▁luồn	-6672
▁lình	-6673
▁lóng	-6674
▁măng	-6675
▁ngời	-6676
▁nách	-6677
▁sành	-6678
▁thét	-6679
▁thầu	-6680
▁tour	-6681
▁Đang	-6682
▁đong	-6683
oyager	-6684
▁Agnes	-6685
▁Ahmed	-6686
▁Bayes	-6687
▁Child	-6688
▁Found	-6689
▁Freud	-6690
▁Helen	-6691
▁Jason	-6692
▁Jimmy	-6693
▁Johan	-6694
▁Johns	-6695
▁Lanka	-6696
▁Libya	-6697
▁Linux	-6698
▁Nhanh	-6699
▁Nhiệt	-6700
▁Odyss	-6701
▁Phóng	-6702
▁Sioux	-6703
▁Tuyên	-6704
▁Video	-6705
▁Young	-6706
▁gamma	-6707
▁nghiã	-6708
▁water	-6709
ecticut	-6710
▁20,000	-6711
▁Aurora	-6712
▁Browne	-6713
▁Donald	-6714
▁Mathem	-6715
▁Rezero	-6716
▁thuyên	-6717
▁200,000	-6718
▁Hopkins	-6719
▁Jamaica	-6720
▁Malcolm	-6721
▁Scratch	-6722
▁Stanley	-6723
▁glucose	-6724
▁milimet	-6725
achusetts	-6726
▁Cochrane	-6727
▁Maryland	-6728
▁Palestin	-6729
▁Amsterdam	-6730
▁Broadmoor	-6731
▁Charlotte	-6732
▁Sebastian	-6733
▁chocolate	-6734
▁PowerPoint	-6735
▁Connecticut	-6736
▁Mathematica	-6737
.2	-6738
.7	-6739
ET	-6740
Le	-6741
Sh	-6742
aa	-6743
gg	-6744
lô	-6745
pp	-6746
rk	-6747
su	-6748
wa	-6749
ỡi	-6750
SDA	-6751
aby	-6752
adi	-6753
ady	-6754
ano	-6755
ape	-6756
apm	-6757
bes	-6758
che	-6759
cop	-6760
dit	-6761
fel	-6762
iag	-6763
lav	-6764
lev	-6765
lov	-6766
mét	-6767
och	-6768
oni	-6769
oro	-6770
ovo	-6771
rit	-6772
vin	-6773
yme	-6774
▁56	-6775
▁89	-6776
▁91	-6777
▁AT	-6778
▁HP	-6779
▁Id	-6780
▁JK	-6781
▁JR	-6782
▁KB	-6783
▁Ly	-6784
▁Lễ	-6785
▁MW	-6786
▁Oz	-6787
▁SB	-6788
▁Wy	-6789
▁bl	-6790
▁bô	-6791
▁dế	-6792
▁lư	-6793
▁lở	-6794
▁nể	-6795
▁đễ	-6796
alie	-6797
aman	-6798
anna	-6799
aren	-6800
arin	-6801
asso	-6802
atma	-6803
etas	-6804
hane	-6805
horn	-6806
iflu	-6807
itic	-6808
itts	-6809
mond	-6810
ough	-6811
phua	-6812
riel	-6813
wait	-6814
west	-6815
xter	-6816
yota	-6817
▁1,3	-6818
▁188	-6819
▁2-3	-6820
▁3,5	-6821
▁Arm	-6822
▁Cro	-6823
▁Cựu	-6824
▁Hut	-6825
▁Imp	-6826
▁Kab	-6827
▁Kan	-6828
▁Kid	-6829
▁Liz	-6830
▁MBA	-6831
▁MBI	-6832
▁Mid	-6833
▁Mob	-6834
▁Món	-6835
▁Nao	-6836
▁Nhu	-6837
▁Nạn	-6838
▁Pia	-6839
▁Pur	-6840
▁Row	-6841
▁Rub	-6842
▁Sel	-6843
▁Spr	-6844
▁Sur	-6845
▁Vai	-6846
▁Vel	-6847
▁Viv	-6848
▁Wis	-6849
▁coc	-6850
▁cặn	-6851
▁cỏi	-6852
▁dem	-6853
▁dạt	-6854
▁dằn	-6855
▁hóm	-6856
▁mào	-6857
▁mồm	-6858
▁ngà	-6859
▁ngõ	-6860
▁par	-6861
▁qúi	-6862
▁rầm	-6863
▁rầu	-6864
▁sul	-6865
▁trơ	-6866
▁von	-6867
▁vạt	-6868
▁Đảo	-6869
▁Đốc	-6870
▁đần	-6871
▁ươm	-6872
Qaeda	-6873
ascal	-6874
atông	-6875
aysia	-6876
ipcar	-6877
organ	-6878
ortis	-6879
rogen	-6880
uchia	-6881
▁1940	-6882
▁1991	-6883
▁1993	-6884
▁7000	-6885
▁Anne	-6886
▁Bart	-6887
▁Bios	-6888
▁Buff	-6889
▁Diet	-6890
▁Dạng	-6891
▁Elec	-6892
▁Evel	-6893
▁Gapm	-6894
▁Giúp	-6895
▁Hind	-6896
▁Homo	-6897
▁Huck	-6898
▁IKEA	-6899
▁Juan	-6900
▁Khal	-6901
▁Luke	-6902
▁Mard	-6903
▁Mars	-6904
▁Nhịp	-6905
▁Pran	-6906
▁Sean	-6907
▁Shaw	-6908
▁Song	-6909
▁Sông	-6910
▁Tric	-6911
▁Vườn	-6912
▁Wire	-6913
▁chèn	-6914
▁chèo	-6915
▁chót	-6916
▁chập	-6917
▁cock	-6918
▁cồng	-6919
▁euro	-6920
▁ngòi	-6921
▁ngóc	-6922
▁ngợm	-6923
▁vượn	-6924
▁yoga	-6925
▁đước	-6926
everly	-6927
manuel	-6928
▁Danny	-6929
▁Elvis	-6930
▁Grant	-6931
▁Guard	-6932
▁Hirsh	-6933
▁INCRA	-6934
▁Jamie	-6935
▁Karen	-6936
▁Osama	-6937
▁Papua	-6938
▁Quyết	-6939
▁Radio	-6940
▁Rives	-6941
▁Scoop	-6942
▁Trình	-6943
▁chánh	-6944
▁giông	-6945
▁khánh	-6946
▁loanh	-6947
▁ngẩng	-6948
▁phiệt	-6949
▁quặng	-6950
▁ruộng	-6951
▁suyễn	-6952
eratops	-6953
▁40,000	-6954
▁40.000	-6955
▁Baxter	-6956
▁Bonnet	-6957
▁Brenda	-6958
▁Chuyên	-6959
▁Econom	-6960
▁Gordon	-6961
▁Harris	-6962
▁Ixaren	-6963
▁Khoảnh	-6964
▁Libăng	-6965
▁Monter	-6966
▁Pascal	-6967
▁Rivers	-6968
▁Wilson	-6969
▁proton	-6970
▁trướng	-6971
▁Bahamas	-6972
▁Beverly	-6973
▁Central	-6974
▁Freeman	-6975
▁Heather	-6976
▁Indiana	-6977
▁Mahatma	-6978
▁Netflix	-6979
▁Rockett	-6980
▁Russell	-6981
▁TEDster	-6982
▁Tamiflu	-6983
▁Voyager	-6984
▁Walmart	-6985
▁Malaysia	-6986
▁Odysseus	-6987
▁Robinson	-6988
▁catadore	-6989
▁cocktail	-6990
▁maratông	-6991
▁Australia	-6992
▁Biosphere	-6993
▁Gapminder	-6994
▁Stockholm	-6995
▁Foundation	-6996
▁Triceratops	-6997
,2	-6998
.6	-6999
IP	-7000
bi	-7001
lê	-7002
uh	-7003
ẻm	-7004
ỡn	-7005
aid	-7006
anc	-7007
aro	-7008
bus	-7009
cer	-7010
fus	-7011
iba	-7012
kim	-7013
met	-7014
oon	-7015
oss	-7016
uch	-7017
val	-7018
vet	-7019
yph	-7020
▁66	-7021
▁AC	-7022
▁Cú	-7023
▁Eb	-7024
▁Fi	-7025
▁Hỗ	-7026
▁LA	-7027
▁MP	-7028
▁Ow	-7029
▁PA	-7030
▁Po	-7031
▁TG	-7032
▁Tớ	-7033
▁Tờ	-7034
▁ad	-7035
▁bở	-7036
▁dí	-7037
▁dó	-7038
▁ep	-7039
▁gt	-7040
▁gỉ	-7041
▁hũ	-7042
▁ni	-7043
▁nè	-7044
▁nỉ	-7045
▁oà	-7046
▁sò	-7047
▁đă	-7048
ader	-7049
agas	-7050
anne	-7051
arak	-7052
arty	-7053
atan	-7054
côla	-7055
ende	-7056
etty	-7057
ides	-7058
imét	-7059
isco	-7060
load	-7061
oney	-7062
read	-7063
rett	-7064
vent	-7065
▁1.4	-7066
▁101	-7067
▁401	-7068
▁750	-7069
▁ARN	-7070
▁Alg	-7071
▁Alt	-7072
▁Ast	-7073
▁BBC	-7074
▁Bấy	-7075
▁Chả	-7076
▁Chỗ	-7077
▁Des	-7078
▁EEG	-7079
▁Gấp	-7080
▁Gọi	-7081
▁Heh	-7082
▁Hey	-7083
▁Hob	-7084
▁Hon	-7085
▁Hum	-7086
▁IMF	-7087
▁Kap	-7088
▁Kas	-7089
▁Las	-7090
▁Mub	-7091
▁Mẫu	-7092
▁Nin	-7093
▁Pac	-7094
▁Rec	-7095
▁Rem	-7096
▁Tân	-7097
▁Vừa	-7098
▁bur	-7099
▁bừa	-7100
▁chk	-7101
▁geo	-7102
▁giỏ	-7103
▁goá	-7104
▁gãi	-7105
▁lab	-7106
▁lõm	-7107
▁lộc	-7108
▁năn	-7109
▁rót	-7110
▁răn	-7111
▁rơm	-7112
▁rữa	-7113
▁sal	-7114
▁sen	-7115
▁túm	-7116
▁tợn	-7117
▁vớt	-7118
▁xua	-7119
ellon	-7120
evelt	-7121
ffiti	-7122
lashy	-7123
lickr	-7124
stone	-7125
tonia	-7126
umann	-7127
▁1918	-7128
▁1920	-7129
▁1957	-7130
▁1965	-7131
▁1973	-7132
▁1979	-7133
▁1983	-7134
▁2015	-7135
▁2500	-7136
▁Burn	-7137
▁Cass	-7138
▁Chim	-7139
▁Gian	-7140
▁Giảm	-7141
▁Java	-7142
▁Judy	-7143
▁Kend	-7144
▁Kurd	-7145
▁Lạnh	-7146
▁Mông	-7147
▁Nhảy	-7148
▁Ohio	-7149
▁Robb	-7150
▁Roos	-7151
▁Rừng	-7152
▁Trin	-7153
▁Troy	-7154
▁Trục	-7155
▁Tàng	-7156
▁Wide	-7157
▁chat	-7158
▁diox	-7159
▁diêm	-7160
▁ganh	-7161
▁kềnh	-7162
▁nhan	-7163
▁nhen	-7164
▁nhím	-7165
▁nhót	-7166
▁nhối	-7167
▁nành	-7168
▁quây	-7169
▁rain	-7170
▁rùng	-7171
▁thây	-7172
▁thềm	-7173
▁vãnh	-7174
▁vồng	-7175
linois	-7176
oshima	-7177
strong	-7178
ynthia	-7179
▁4.000	-7180
▁5.000	-7181
▁Broth	-7182
▁Casey	-7183
▁Chủng	-7184
▁Clark	-7185
▁Color	-7186
▁DARPA	-7187
▁Galil	-7188
▁Gayla	-7189
▁Geoff	-7190
▁Hướng	-7191
▁Linus	-7192
▁Molly	-7193
▁Naomi	-7194
▁Pilot	-7195
▁Pitts	-7196
▁Riley	-7197
▁Rufus	-7198
▁Thằng	-7199
▁Tweet	-7200
▁Vinci	-7201
▁Wales	-7202
▁Water	-7203
▁amino	-7204
▁chang	-7205
▁chuồn	-7206
▁chưng	-7207
▁nguời	-7208
▁nhung	-7209
▁nhuần	-7210
▁phước	-7211
▁token	-7212
▁trũng	-7213
anistan	-7214
centure	-7215
ocrates	-7216
ortisol	-7217
▁30,000	-7218
▁30.000	-7219
▁Achill	-7220
▁Bilbao	-7221
▁Critic	-7222
▁Flickr	-7223
▁Hitler	-7224
▁Hunter	-7225
▁Kosovo	-7226
▁Mellon	-7227
▁Michel	-7228
▁Sergey	-7229
▁Sisyph	-7230
▁Studio	-7231
▁Toyota	-7232
▁Viking	-7233
▁enzyme	-7234
▁google	-7235
▁Cynthia	-7236
▁Denisov	-7237
▁Gabriel	-7238
▁Georgia	-7239
▁Mubarak	-7240
▁Picasso	-7241
▁Tunisia	-7242
▁prôtein	-7243
▁Friedman	-7244
▁Guardian	-7245
▁Illinois	-7246
▁Marshall	-7247
▁Monterey	-7248
▁cortisol	-7249
▁estrogen	-7250
▁graffiti	-7251
▁Accenture	-7252
▁Campuchia	-7253
▁Hampshire	-7254
▁Hiroshima	-7255
▁Photoshop	-7256
▁Pittsburgh	-7257
▁Massachusetts	-7258
,4	-7259
-5	-7260
.3	-7261
ER	-7262
ES	-7263
HO	-7264
RN	-7265
iy	-7266
ps	-7267
---	-7268
any	-7269
bab	-7270
eed	-7271
eka	-7272
erk	-7273
ery	-7274
ffe	-7275
ibb	-7276
ito	-7277
lic	-7278
mmm	-7279
oac	-7280
oul	-7281
rat	-7282
rập	-7283
uga	-7284
umi	-7285
xon	-7286
yce	-7287
yle	-7288
ổng	-7289
▁59	-7290
▁71	-7291
▁73	-7292
▁AI	-7293
▁HC	-7294
▁LG	-7295
▁Lí	-7296
▁Lũ	-7297
▁MM	-7298
▁NG	-7299
▁NI	-7300
▁PC	-7301
▁Pe	-7302
▁TD	-7303
▁Tạ	-7304
▁au	-7305
▁lẹ	-7306
▁mm	-7307
▁pl	-7308
▁té	-7309
▁uý	-7310
▁vơ	-7311
▁vể	-7312
▁úp	-7313
▁ắp	-7314
▁ừm	-7315
Prin	-7316
abin	-7317
acre	-7318
adus	-7319
ames	-7320
anan	-7321
burn	-7322
egal	-7323
esar	-7324
gram	-7325
idro	-7326
incl	-7327
ivic	-7328
ment	-7329
nick	-7330
onia	-7331
onie	-7332
ords	-7333
orth	-7334
othy	-7335
ouri	-7336
quez	-7337
raft	-7338
rass	-7339
reat	-7340
rice	-7341
ryst	-7342
tern	-7343
ucky	-7344
unch	-7345
unes	-7346
uten	-7347
uyễn	-7348
wick	-7349
yrne	-7350
zone	-7351
▁0.5	-7352
▁1.8	-7353
▁202	-7354
▁365	-7355
▁ABC	-7356
▁Ath	-7357
▁Bin	-7358
▁Bit	-7359
▁Blu	-7360
▁Bre	-7361
▁Bầu	-7362
▁Bữa	-7363
▁Cod	-7364
▁Cos	-7365
▁Cấp	-7366
▁Gió	-7367
▁Hem	-7368
▁Hoạ	-7369
▁Hud	-7370
▁Hơi	-7371
▁Key	-7372
▁Khơ	-7373
▁Kia	-7374
▁LOL	-7375
▁Lur	-7376
▁Lối	-7377
▁Lớp	-7378
▁Mây	-7379
▁Mãi	-7380
▁Nev	-7381
▁Núi	-7382
▁Ola	-7383
▁Pav	-7384
▁Pho	-7385
▁Pin	-7386
▁Pre	-7387
▁Rep	-7388
▁Reu	-7389
▁Rốt	-7390
▁Sag	-7391
▁Sar	-7392
▁Suz	-7393
▁Thi	-7394
▁Vis	-7395
▁bùa	-7396
▁bùm	-7397
▁bổn	-7398
▁chừ	-7399
▁dặt	-7400
▁for	-7401
▁gợn	-7402
▁héo	-7403
▁hòm	-7404
▁hạc	-7405
▁hốt	-7406
▁lồi	-7407
▁mix	-7408
▁ngỡ	-7409
▁nều	-7410
▁phỉ	-7411
▁rao	-7412
▁rèm	-7413
▁rên	-7414
▁rợn	-7415
▁sầu	-7416
▁sồi	-7417
▁ten	-7418
▁trờ	-7419
▁usd	-7420
▁vụt	-7421
▁wow	-7422
▁yến	-7423
▁đên	-7424
efoot	-7425
esome	-7426
icill	-7427
ilton	-7428
pines	-7429
▁1858	-7430
▁1949	-7431
▁1962	-7432
▁1982	-7433
▁8000	-7434
▁Bach	-7435
▁Balk	-7436
▁Bong	-7437
▁CERN	-7438
▁Cape	-7439
▁Chin	-7440
▁Chơi	-7441
▁Clev	-7442
▁Comp	-7443
▁Corn	-7444
▁Diam	-7445
▁Duol	-7446
▁Euro	-7447
▁Gard	-7448
▁Gene	-7449
▁Glad	-7450
▁Head	-7451
▁Hunt	-7452
▁Khắp	-7453
▁Limb	-7454
▁Lắng	-7455
▁Ngồi	-7456
▁Pach	-7457
▁Phép	-7458
▁Phẫu	-7459
▁Pyth	-7460
▁Show	-7461
▁Snow	-7462
▁Thoả	-7463
▁Tiện	-7464
▁Trải	-7465
▁beat	-7466
▁biêt	-7467
▁chao	-7468
▁chém	-7469
▁chần	-7470
▁chừa	-7471
▁demo	-7472
▁eBay	-7473
▁giời	-7474
▁gàng	-7475
▁khay	-7476
▁khắt	-7477
▁khứu	-7478
▁laze	-7479
▁micr	-7480
▁mách	-7481
▁mùng	-7482
▁mắng	-7483
▁neut	-7484
▁ngạt	-7485
▁ngầu	-7486
▁nhàn	-7487
▁nháp	-7488
▁nhõm	-7489
▁nhúm	-7490
▁nhầy	-7491
▁nitơ	-7492
▁okay	-7493
▁sofa	-7494
▁sững	-7495
▁thòi	-7496
▁toái	-7497
▁trăn	-7498
▁tuột	-7499
▁xiết	-7500
▁đuợc	-7501
▁đùng	-7502
Prince	-7503
ingham	-7504
kraine	-7505
muddin	-7506
nesota	-7507
stream	-7508
▁1,500	-7509
▁4,000	-7510
▁Actor	-7511
▁Cohen	-7512
▁Davis	-7513
▁Ellen	-7514
▁Encel	-7515
▁Exxon	-7516
▁Faiza	-7517
▁House	-7518
▁Hyder	-7519
▁Jacob	-7520
▁Jihad	-7521
▁Kabul	-7522
▁Khuôn	-7523
▁Klein	-7524
▁Media	-7525
▁Paula	-7526
▁Perry	-7527
▁Prize	-7528
▁Roman	-7529
▁Serra	-7530
▁Sheph	-7531
▁Sincl	-7532
▁Trách	-7533
▁Tuyết	-7534
▁Xuyên	-7535
▁chuộc	-7536
▁chũng	-7537
▁civic	-7538
▁huyện	-7539
▁nhứng	-7540
▁oxide	-7541
▁phách	-7542
▁trans	-7543
▁tròng	-7544
ambique	-7545
icillin	-7546
▁12.000	-7547
▁60,000	-7548
▁Amanda	-7549
▁Canyon	-7550
▁Church	-7551
▁Clonie	-7552
▁Evelyn	-7553
▁Hamlet	-7554
▁Jeremy	-7555
▁Malawi	-7556
▁Reddit	-7557
▁School	-7558
▁Thưởng	-7559
▁Venter	-7560
▁bonobo	-7561
▁helium	-7562
▁nghĩnh	-7563
▁ngượng	-7564
▁photon	-7565
▁Bandura	-7566
▁Barbara	-7567
▁England	-7568
▁Galileo	-7569
▁Jacques	-7570
▁Michoac	-7571
▁Ottoman	-7572
▁Senegal	-7573
▁Terence	-7574
▁complex	-7575
▁Barefoot	-7576
▁Colorado	-7577
▁Emmanuel	-7578
▁Olympics	-7579
▁Sinclair	-7580
▁hormones	-7581
▁Christian	-7582
▁Enceladus	-7583
▁Minnesota	-7584
▁Riverside	-7585
▁Roosevelt	-7586
▁Afganistan	-7587
▁Mozambique	-7588
▁Transition	-7589
▁penicillin	-7590
,3	-7591
,9	-7592
.8	-7593
DR	-7594
LV	-7595
ML	-7596
OO	-7597
OV	-7598
TO	-7599
TT	-7600
bê	-7601
dt	-7602
gs	-7603
wl	-7604
éc	-7605
ĩu	-7606
▁í	-7607
ARS	-7608
MRI	-7609
abi	-7610
afi	-7611
ams	-7612
bar	-7613
bul	-7614
dad	-7615
dan	-7616
dor	-7617
eli	-7618
ema	-7619
fer	-7620
fia	-7621
fri	-7622
gie	-7623
hop	-7624
imi	-7625
ios	-7626
ise	-7627
iêc	-7628
kin	-7629
lam	-7630
lau	-7631
nic	-7632
ogh	-7633
oit	-7634
osp	-7635
rag	-7636
ras	-7637
rea	-7638
ret	-7639
rez	-7640
rik	-7641
sen	-7642
uke	-7643
uza	-7644
õng	-7645
▁05	-7646
▁62	-7647
▁63	-7648
▁83	-7649
▁88	-7650
▁Ay	-7651
▁BK	-7652
▁Bỉ	-7653
▁DC	-7654
▁GV	-7655
▁Gã	-7656
▁Kĩ	-7657
▁Lẽ	-7658
▁SI	-7659
▁Sợ	-7660
▁Tù	-7661
▁as	-7662
▁cl	-7663
▁dơ	-7664
▁ed	-7665
▁eo	-7666
▁ft	-7667
▁gù	-7668
▁hê	-7669
▁lự	-7670
▁my	-7671
▁mó	-7672
▁nu	-7673
▁vò	-7674
▁đờ	-7675
▁ạt	-7676
aina	-7677
aire	-7678
alog	-7679
anor	-7680
athy	-7681
atin	-7682
azar	-7683
cola	-7684
corn	-7685
endo	-7686
enix	-7687
gill	-7688
leep	-7689
lock	-7690
more	-7691
olph	-7692
omon	-7693
opin	-7694
rene	-7695
roid	-7696
rove	-7697
shmi	-7698
sson	-7699
uana	-7700
urga	-7701
yson	-7702
▁0,0	-7703
▁0.1	-7704
▁1.7	-7705
▁182	-7706
▁2.3	-7707
▁3.5	-7708
▁650	-7709
▁Aug	-7710
▁Aut	-7711
▁Bac	-7712
▁Bul	-7713
▁CDC	-7714
▁Cải	-7715
▁Cửa	-7716
▁Dep	-7717
▁HLV	-7718
▁Hậu	-7719
▁Hết	-7720
▁Kob	-7721
▁LHC	-7722
▁Lem	-7723
▁Lov	-7724
▁NIH	-7725
▁One	-7726
▁Pao	-7727
▁Phổ	-7728
▁Quỷ	-7729
▁RNA	-7730
▁Rap	-7731
▁Saf	-7732
▁Sir	-7733
▁Sum	-7734
▁Sốt	-7735
▁Tra	-7736
▁Von	-7737
▁Vẫy	-7738
▁Wol	-7739
▁Xác	-7740
▁are	-7741
▁blu	-7742
▁cou	-7743
▁dĩa	-7744
▁dừa	-7745
▁gẫu	-7746
▁hot	-7747
▁hùm	-7748
▁hột	-7749
▁lim	-7750
▁lóc	-7751
▁lún	-7752
▁lỏi	-7753
▁lốp	-7754
▁lụi	-7755
▁meg	-7756
▁mod	-7757
▁nga	-7758
▁ngỏ	-7759
▁nhả	-7760
▁nẹp	-7761
▁phà	-7762
▁quĩ	-7763
▁rầy	-7764
▁sex	-7765
▁sệt	-7766
▁sọc	-7767
▁thớ	-7768
▁tằm	-7769
▁uất	-7770
▁vói	-7771
▁vẹt	-7772
▁vợt	-7773
▁woo	-7774
▁Đẹp	-7775
▁Đọc	-7776
▁Đổi	-7777
▁đái	-7778
▁ưng	-7779
antha	-7780
chúng	-7781
erkat	-7782
icsek	-7783
iffel	-7784
inger	-7785
insey	-7786
istor	-7787
nders	-7788
người	-7789
ology	-7790
onsin	-7791
otton	-7792
press	-7793
uston	-7794
ydney	-7795
zmann	-7796
▁1200	-7797
▁1948	-7798
▁1968	-7799
▁1987	-7800
▁2014	-7801
▁Anna	-7802
▁Aviv	-7803
▁Bagh	-7804
▁Ball	-7805
▁Bank	-7806
▁Beth	-7807
▁Bion	-7808
▁Bond	-7809
▁Brun	-7810
▁Burg	-7811
▁Bỗng	-7812
▁CPhi	-7813
▁Dian	-7814
▁Erik	-7815
▁Feyn	-7816
▁Food	-7817
▁Gall	-7818
▁Giff	-7819
▁Good	-7820
▁Hack	-7821
▁Hiểu	-7822
▁Hoff	-7823
▁Home	-7824
▁Huss	-7825
▁Hằng	-7826
▁Isab	-7827
▁Jans	-7828
▁Kant	-7829
▁Knee	-7830
▁Kris	-7831
▁Lake	-7832
▁Lisa	-7833
▁Mech	-7834
▁Nano	-7835
▁Ngọn	-7836
▁Pear	-7837
▁Phúc	-7838
▁Play	-7839
▁Roma	-7840
▁Saul	-7841
▁Sony	-7842
▁Tide	-7843
▁Toby	-7844
▁Trân	-7845
▁Trại	-7846
▁Trạm	-7847
▁Trận	-7848
▁Tulu	-7849
▁Whoa	-7850
▁beep	-7851
▁blah	-7852
▁chĩa	-7853
▁chồi	-7854
▁	-7855
n	-7856
h	-7857
t	-7858
i	-7859
c	-7860
g	-7861
a	-7862
à	-7863
đ	-7864
u	-7865
m	-7866
o	-7867
l	-7868
r	-7869
v	-7870
y	-7871
ư	-7872
ô	-7873
b	-7874
,	-7875
á	-7876
ó	-7877
.	-7878
k	-7879
s	-7880
p	-7881
ế	-7882
ạ	-7883
ộ	-7884
ả	-7885
ấ	-7886
ú	-7887
ệ	-7888
ề	-7889
ể	-7890
ờ	-7891
d	-7892
ì	-7893
ớ	-7894
ố	-7895
ê	-7896
ữ	-7897
â	-7898
q	-7899
e	-7900
ự	-7901
ậ	-7902
ủ	-7903
ọ	-7904
ơ	-7905
ợ	-7906
ở	-7907
ầ	-7908
ã	-7909
T	-7910
ứ	-7911
í	-7912
V	-7913
x	-7914
C	-7915
N	-7916
ị	-7917
ă	-7918
;	-7919
ắ	-7920
&	-7921
-	-7922
ụ	-7923
ẽ	-7924
ừ	-7925
ồ	-7926
ằ	-7927
Đ	-7928
ổ	-7929
0	-7930
ặ	-7931
ĩ	-7932
ù	-7933
1	-7934
ò	-7935
B	-7936
ỏ	-7937
ỉ	-7938
M	-7939
?	-7940
ử	-7941
H	-7942
ũ	-7943
ý	-7944
é	-7945
ẻ	-7946
K	-7947
S	-7948
:	-7949
A	-7950
ỗ	-7951
ẫ	-7952
2	-7953
D	-7954
ẩ	-7955
L	-7956
ễ	-7957
P	-7958
G	-7959
3	-7960
5	-7961
ẹ	-7962
9	-7963
R	-7964
ỹ	-7965
w	-7966
E	-7967
ẳ	-7968
I	-7969
4	-7970
ỡ	-7971
ỷ	-7972
ỳ	-7973
f	-7974
Q	-7975
õ	-7976
è	-7977
J	-7978
8	-7979
6	-7980
7	-7981
O	-7982
W	-7983
z	-7984
F	-7985
X	-7986
%	-7987
Ô	-7988
Y	-7989
!	-7990
#	-7991
Ở	-7992
ẵ	-7993
